[PAD]	0
[UNK]	0
[CLS]	0
[SEP]	0
[MASK]	0
▁	-1.19729
_	-3.15651
▁mov	-3.20269
eax	-3.21859
[	-3.26943
▁]	-3.26943
+	-3.32368
▁push	-3.71385
ebp	-3.83496
ecx	-4.09451
@	-4.09879
esi	-4.14753
h	-4.24257
▁call	-4.29699
ebx	-4.41486
▁var	-4.44046
edx	-4.46891
▁0	-4.63435
▁edi	-4.6537
▁loc	-4.6811
▁4	-4.79503
▁pop	-4.79968
esp	-4.83697
c	-4.99734
ptr	-5.1828
▁dword	-5.2048
z	-5.275
▁lea	-5.3018
▁sub	-5.37135
▁j	-5.37376
0	-5.48458
▁arg	-5.51533
:	-5.55124
ch	-5.59286
▁add	-5.61366
$	-5.61655
▁1	-5.62159
▁test	-5.6336
a	-5.6731
8	-5.69062
▁8	-5.70406
d	-5.7177
▁cmp	-5.76201
▁xor	-5.78065
b	-5.80774
e	-5.83915
4	-5.89459
▁r	-5.93174
▁retn	-5.96599
f	-5.97445
▁offset	-5.9754
▁10	-6.00797
▁al	-6.02647
▁ds	-6.05368
?	-6.13706
▁2	-6.2281
jmp	-6.24458
1	-6.27864
2	-6.42206
▁40	-6.4585
3	-6.49857
▁byte	-6.49873
▁14	-6.59436
▁and	-6.6787
▁fs	-6.69881
ax	-6.72354
9	-6.72498
v	-6.72793
-	-6.72954
7	-6.75511
6	-6.75543
nz	-6.75667
▁18	-6.75846
system	-6.78224
▁jn	-6.80339
▁qqr	-6.80614
5	-6.82322
▁20	-6.94025
▁inc	-6.97098
zx	-6.98075
name	-7.0217
*	-7.03899
▁xmm	-7.04021
▁41	-7.08033
▁44	-7.085
unknown	-7.12599
▁lib	-7.13437
▁system	-7.15127
cx	-7.1889
▁dl	-7.21043
word	-7.21685
17	-7.30352
▁3	-7.331
▁or	-7.35995
▁off	-7.36156
ffffffff	-7.38331
▁28	-7.3855
▁43	-7.43475
▁24	-7.44903
▁cl	-7.45785
▁42	-7.47504
▁30	-7.47621
▁bl	-7.49137
▁dec	-7.54047
14	-7.54849
▁jl	-7.58792
20	-7.59992
▁48	-7.60043
rsp	-7.60415
▁controls	-7.61626
i	-7.6343
fh	-7.65506
p	-7.6754
▁45	-7.74171
classes	-7.7736
dx	-7.79218
s	-7.81981
sd	-7.82784
▁qqrp	-7.83333
fffffff	-7.84019
▁std	-7.85362
x	-7.87677
ah	-7.88952
bx	-7.89273
▁38	-7.94799
▁34	-7.97922
w	-7.98024
▁46	-8.02543
▁free	-8.02822
graphics	-8.10143
▁7	-8.11861
▁47	-8.11928
▁shl	-8.17638
12	-8.18579
▁t	-8.18941
eh	-8.19922
ff	-8.2009
▁get	-8.22386
▁5	-8.22819
▁shr	-8.22971
▁leave	-8.23264
15	-8.23903
rdi	-8.25036
▁6	-8.26512
printf	-8.26805
▁jb	-8.27754
rsi	-8.2795
▁409	-8.2963
▁qqri	-8.30345
▁58	-8.30809
▁twincontrol	-8.32451
▁tcontrol	-8.3441
▁50	-8.35065
18	-8.37375
▁lp	-8.3798
▁68	-8.38715
▁security	-8.39553
▁large	-8.39642
▁ansistring	-8.41021
str	-8.42581
r	-8.43301
be	-8.43584
mul	-8.4382
10	-8.4444
▁qqrpv	-8.45804
▁cookie	-8.46168
▁fst	-8.48526
▁qae	-8.49801
bp	-8.51176
dh	-8.51796
▁fld	-8.52578
wnd	-8.53018
utils	-8.53759
64	-8.53868
▁100	-8.54374
▁qword	-8.54431
▁movsx	-8.55488
bh	-8.57027
▁set	-8.57871
▁54	-8.58573
▁xz	-8.59021
▁qqrr	-8.59113
▁sys	-8.61116
▁neg	-8.62101
sar	-8.62331
dc	-8.63435
▁lstr	-8.64288
13	-8.65195
jge	-8.65974
bc	-8.66076
▁70	-8.66128
▁qqrx	-8.66256
ac	-8.66624
11	-8.66774
forms	-8.66965
▁unk	-8.6711
▁string	-8.69202
▁64	-8.69244
si	-8.6949
▁60	-8.70047
45	-8.71311
▁block	-8.74557
interface	-8.76082
handle	-8.76832
▁tobject	-8.76992
cc	-8.77176
▁sb	-8.78762
▁check	-8.78785
▁407	-8.7911
fc	-8.7915
▁78	-8.82293
db	-8.82958
▁74	-8.83007
▁80	-8.8373
▁gethandle	-8.84648
cb	-8.85425
40	-8.85857
ec	-8.85883
bf	-8.88164
▁prolog	-8.89676
exception	-8.90455
jnb	-8.90987
state	-8.91084
▁405	-8.91694
28	-8.92064
00	-8.92147
rrno	-8.94171
▁locale	-8.94668
▁tlist	-8.9515
▁jg	-8.96675
▁cdq	-8.96875
30	-8.97912
▁sendmessage	-8.97917
rect	-8.9798
▁def	-8.98001
80	-8.98368
50	-8.98561
▁412	-8.99832
▁16	-8.99949
bb	-9.00385
▁str	-9.00613
controls	-9.00863
dd	-9.00985
16	-9.00985
▁ms	-9.01748
▁char	-9.02046
bd	-9.02686
▁exc	-9.03004
aa	-9.04712
60	-9.04805
▁408	-9.0536
▁stru	-9.05917
▁src	-9.06259
▁hwnd	-9.06636
ea	-9.09099
afx	-9.0975
text	-9.09829
▁buf	-9.10482
▁1000	-9.10891
▁setnl	-9.11334
▁traits	-9.11361
ad	-9.11984
string	-9.12394
t	-9.12865
01070	-9.12988
registration	-9.13021
70	-9.15052
90	-9.15388
fb	-9.15584
ab	-9.16399
fe	-9.17776
▁mem	-9.178
38	-9.17912
▁file	-9.1912
24	-9.20317
ffffffe	-9.20466
eb	-9.20672
▁88	-9.20857
▁yapaxi	-9.21243
▁402	-9.21273
ae	-9.2183
wparam	-9.22338
data	-9.22342
ed	-9.22631
▁tcustom	-9.22936
▁tmetaclass	-9.23651
68	-9.23895
info	-9.2436
try	-9.24686
ba	-9.24867
▁tcanvas	-9.25763
32	-9.2656
fa	-9.26587
menus	-9.2686
cf	-9.27774
▁cs	-9.28104
▁824	-9.2824
▁tobjectp	-9.28308
lparam	-9.2869
▁atl	-9.2925
19	-9.29276
▁ja	-9.3007
▁406	-9.30949
af	-9.31606
fd	-9.3168
multibyte	-9.32163
inst	-9.32741
dyna	-9.3336
▁buffer	-9.33609
34	-9.34256
level	-9.34258
78	-9.34483
object	-9.34634
▁st	-9.34851
▁rep	-9.34899
▁401	-9.352
ce	-9.35201
58	-9.35724
ee	-9.36262
▁bctr	-9.36545
de	-9.36882
ca	-9.37097
▁pvarg	-9.37832
22	-9.37905
▁rect	-9.38777
▁411	-9.40463
ef	-9.40711
u	-9.41705
88	-9.41724
asg	-9.42045
▁49	-9.42073
▁410	-9.42115
54	-9.42219
▁l	-9.4267
98	-9.43037
▁seh	-9.43111
48	-9.43117
cd	-9.44412
▁setz	-9.44744
imagelist	-9.44815
▁not	-9.45274
▁qqrpvi	-9.46178
▁delphi	-9.46274
df	-9.46478
da	-9.46721
▁tcomponent	-9.47287
▁rc	-9.4836
type	-9.4926
variants	-9.50408
criticalsection	-9.50652
74	-9.50749
84	-9.50802
▁dbl	-9.51027
▁is	-9.51151
37	-9.51338
▁403	-9.51436
21	-9.51544
xz	-9.51648
di	-9.51784
▁tresstringrec	-9.5184
count	-9.54792
▁lock	-9.54845
list	-9.55066
▁84	-9.55526
pxv	-9.55655
41	-9.56246
27	-9.57258
▁404	-9.58115
▁basic	-9.58308
▁crt	-9.584
sclass	-9.58549
44	-9.58856
29	-9.59031
▁1001	-9.59128
▁98	-9.59732
fff	-9.60125
▁416	-9.60337
▁hdc	-9.60769
ffff	-9.60989
94	-9.61306
types	-9.61309
fffffffe	-9.61768
lock	-9.63225
▁n	-9.63715
▁du	-9.63925
▁lpstring	-9.64481
clr	-9.6468
reader	-9.6482
ctrls	-9.6511
▁90	-9.6516
72	-9.65273
▁414	-9.65462
widechar	-9.65539
▁413	-9.66237
▁size	-9.66287
▁120	-9.66421
67	-9.6678
cch	-9.66801
▁418	-9.67122
▁421	-9.67389
n	-9.67465
▁qqrrx	-9.67609
▁104	-9.68159
▁94	-9.68924
nop	-9.69037
▁tbitmap	-9.69741
▁state	-9.70237
ret	-9.70508
▁js	-9.71581
▁19	-9.71723
▁qqruiii	-9.71724
▁e	-9.71858
message	-9.71918
set	-9.72269
▁tdockzone	-9.73061
▁dw	-9.73264
▁lpsz	-9.7368
move	-9.74023
parameter	-9.74253
▁module	-9.74279
▁420	-9.74986
address	-9.75411
▁invalid	-9.75631
▁415	-9.75698
▁stos	-9.76097
dqa	-9.76218
61	-9.76572
▁allocator	-9.76827
▁128	-9.76862
sw	-9.77095
▁no	-9.77237
46	-9.7763
▁write	-9.78125
▁wait	-9.78927
08	-9.7909
ffffff	-9.80175
▁unlock	-9.80364
to	-9.80861
ech	-9.80967
▁stream	-9.80978
value	-9.81117
y	-9.81195
47	-9.82149
49	-9.82156
len	-9.82887
42	-9.83225
▁destination	-9.84537
mem	-9.8471
31	-9.85316
▁getproc	-9.85318
55	-9.85363
▁ygpav	-9.85517
57	-9.85549
▁perform	-9.85748
▁widestring	-9.85965
26	-9.86092
▁source	-9.86284
buffer	-9.86621
01	-9.87166
51	-9.87467
▁4012	-9.87989
69	-9.88028
glist	-9.88297
▁22	-9.88332
filename	-9.88436
▁tmenuitem	-9.88597
mov	-9.88637
msg	-9.89037
▁setn	-9.89149
ach	-9.89346
▁417	-9.89457
76	-9.89595
o	-9.89603
▁4011	-9.90886
▁raiseexcept	-9.91124
36	-9.91757
fch	-9.91791
size	-9.92078
▁adc	-9.92083
35	-9.92104
▁afxgetmodule	-9.92238
39	-9.92327
▁intfc	-9.925
25	-9.92669
41148	-9.92965
04	-9.94256
▁fil	-9.94575
63	-9.95218
div	-9.95608
▁422	-9.95883
left	-9.96092
ncle	-9.96614
chg	-9.9682
▁delete	-9.96985
▁456	-9.97049
▁im	-9.97683
▁423	-9.9776
▁point	-9.9785
▁164	-9.97951
23	-9.98223
52	-9.99341
65	-9.99447
window	-9.99633
▁419	-9.99827
application	-9.99857
top	-10.0006
▁select	-10.0037
result	-10.0059
▁12	-10.0087
▁getpt	-10.0099
or	-10.0121
77	-10.0123
▁424	-10.0147
▁format	-10.0164
56	-10.0204
ex	-10.0299
▁malloc	-10.0345
▁425	-10.0352
▁qbe	-10.0362
▁loadres	-10.0372
position	-10.0413
exceptionobject	-10.0453
▁lstrto	-10.0474
▁cxxframehandler	-10.0479
▁getlocaleinfo	-10.0482
▁idi	-10.0496
▁194	-10.0547
screen	-10.0563
71	-10.0577
▁qqro	-10.0596
anonymous	-10.0658
79	-10.0694
▁base	-10.0705
▁iterator	-10.0717
pchar	-10.0796
▁426	-10.0853
update	-10.0862
66	-10.0867
▁114	-10.0899
33	-10.0943
color	-10.0962
▁fnst	-10.0994
ffffffd	-10.0997
this	-10.1004
93	-10.1049
cmp	-10.1053
▁time	-10.1059
init	-10.1066
dch	-10.1071
96	-10.1073
▁qqrui	-10.1124
frame	-10.1155
85	-10.1192
▁21	-10.1204
file	-10.124
▁pau	-10.128
62	-10.1291
▁error	-10.1309
▁429	-10.1313
▁iu	-10.1335
array	-10.1343
▁446	-10.136
89	-10.1378
73	-10.1458
▁428	-10.1459
▁80000000	-10.1459
▁108	-10.1476
53	-10.1554
pd	-10.1554
43	-10.1578
75	-10.166
▁mul	-10.1689
▁wcs	-10.1696
strlen	-10.1703
codepage	-10.1719
03112	-10.1731
right	-10.1734
▁463	-10.1748
▁110	-10.1766
800	-10.1811
86	-10.1836
59	-10.1847
except	-10.1886
▁uae	-10.1898
q	-10.1972
▁y	-10.1988
▁tstream	-10.1992
no	-10.1992
▁438	-10.2022
▁168	-10.2047
char	-10.2051
menu	-10.2147
▁210	-10.2176
03	-10.218
xxz	-10.2185
▁427	-10.2201
▁443	-10.2237
▁tcolor	-10.2268
read	-10.2273
▁444	-10.2287
81	-10.2327
module	-10.2376
▁460	-10.2384
99	-10.2392
lpd	-10.2405
copy	-10.2416
width	-10.2462
cookie	-10.2476
06	-10.2491
82	-10.2524
arraycl	-10.2574
height	-10.2596
cpy	-10.2599
95	-10.2601
▁208	-10.2617
cw	-10.2645
92	-10.2657
main	-10.2666
▁436	-10.2685
number	-10.271
02	-10.2715
instance	-10.2789
bottom	-10.2804
87	-10.2888
91	-10.2907
97	-10.2942
▁qaeaav	-10.2957
01360	-10.2958
▁451	-10.2974
allocated	-10.2974
wu	-10.303
▁440	-10.3037
400	-10.3081
▁com	-10.3084
83	-10.3115
▁read	-10.3124
lear	-10.3137
▁439	-10.316
▁437	-10.3198
ui	-10.3291
9997	-10.334
▁1400	-10.3353
class	-10.3353
▁447	-10.3356
▁tcxcustom	-10.3396
▁tbrush	-10.3397
▁461	-10.3413
▁11	-10.3423
▁tcustomform	-10.3435
currencyedit	-10.3447
▁getwindowlong	-10.3482
▁448	-10.3509
▁453	-10.3542
le	-10.3555
▁441	-10.3621
▁before	-10.3656
variant	-10.369
286	-10.3711
▁div	-10.3758
j	-10.376
getlasterro	-10.377
obj	-10.3792
▁8000	-10.3829
hwnd	-10.3843
▁434	-10.3977
▁win	-10.3985
tls	-10.4012
edi	-10.4026
▁afx	-10.4032
▁433	-10.4041
▁445	-10.4047
▁124	-10.4082
write	-10.4095
▁435	-10.4098
▁469	-10.4113
▁acrt	-10.4129
▁getparent	-10.4138
clear	-10.4149
▁220	-10.4174
locale	-10.4196
▁459	-10.4212
ckobject	-10.4226
tvardata	-10.4234
▁fromhandle	-10.4235
sub	-10.4252
mode	-10.4294
▁218	-10.4322
item	-10.4327
▁442	-10.4358
▁57	-10.4364
destruct	-10.4465
▁40936	-10.4478
xor	-10.4581
▁probe	-10.4686
▁tdatetime	-10.4715
buf	-10.4725
ion	-10.4743
▁getcontrol	-10.4745
▁14000	-10.4755
▁432	-10.478
target	-10.4794
▁qqrii	-10.4803
▁pauh	-10.4844
▁abv	-10.4866
▁sgpav	-10.4867
handler	-10.4871
▁alloca	-10.489
▁dose	-10.4898
▁449	-10.4916
client	-10.4923
▁200	-10.4925
style	-10.4934
scrollbar	-10.4939
▁465	-10.4989
tree	-10.4989
▁av	-10.5004
07	-10.5022
▁10000	-10.5034
▁vbahresultcheck	-10.5039
05	-10.5047
▁create	-10.505
▁468	-10.5062
▁458	-10.5094
▁467	-10.5143
pointer	-10.5174
000	-10.5184
▁497	-10.519
▁done	-10.5197
▁release	-10.5248
control	-10.5293
▁464	-10.5302
length	-10.5323
thread	-10.536
base	-10.5379
▁455	-10.5381
▁452	-10.5394
▁180	-10.5446
▁23	-10.545
▁430	-10.5489
extedit	-10.5522
edit	-10.5523
stringt	-10.5529
▁1002	-10.5551
▁asc	-10.5553
▁4077	-10.5566
09	-10.5599
heap	-10.5624
▁filename	-10.5635
▁100355	-10.5663
map	-10.5679
▁getclient	-10.568
index	-10.5692
▁400	-10.5747
l	-10.5817
rs	-10.5819
▁454	-10.5822
▁getwindow	-10.5824
change	-10.5879
▁431	-10.5895
istreambuf	-10.5911
mask	-10.5943
typ	-10.5971
aps	-10.5998
▁238	-10.604
rx	-10.605
texit	-10.6058
▁29	-10.6072
localeinfo	-10.6089
▁cstring	-10.6106
cdc	-10.6108
3039	-10.6119
▁li	-10.6129
▁variant	-10.6206
notra	-10.6208
▁228	-10.6212
▁ablue	-10.6219
▁numberofbytes	-10.6231
▁aunsigned	-10.6244
▁118	-10.6245
▁afirst	-10.626
flags	-10.6271
▁stack	-10.6277
▁iswindow	-10.6281
▁athecolo	-10.629
tthep	-10.6292
numberd	-10.6324
▁find	-10.6327
▁struct	-10.6345
rin	-10.6393
00000	-10.6403
justp	-10.641
▁lstrcat	-10.6411
▁tdock	-10.6416
feh	-10.6437
push	-10.6447
concurrency	-10.65
athird	-10.6527
▁457	-10.6551
▁themes	-10.6551
dtr	-10.6581
date	-10.6588
▁ya	-10.6588
▁234	-10.6596
▁qqrl	-10.6624
details	-10.6626
aexxz	-10.6753
pt	-10.679
▁wstr	-10.6832
apd	-10.6847
▁96	-10.6861
▁classname	-10.6877
▁tmenu	-10.6927
▁seto	-10.6928
▁14005	-10.6949
▁setcolor	-10.7004
▁450	-10.7014
▁phk	-10.7022
nnumberofbytesto	-10.7078
varr	-10.7151
bda	-10.7157
lstr	-10.7178
▁tpoint	-10.718
▁138	-10.7191
palette	-10.7208
node	-10.721
alloc	-10.7213
▁interlocked	-10.7248
xthrow	-10.726
visible	-10.7262
dw	-10.7285
▁pvargsrc	-10.7318
▁198	-10.7327
id	-10.7329
▁pbd	-10.7422
calloc	-10.7424
▁target	-10.7439
uments	-10.7442
exceptionrecord	-10.7476
▁pav	-10.7527
▁mm	-10.7565
crt	-10.7595
key	-10.7606
▁pv	-10.7611
image	-10.7614
▁maxcount	-10.7636
tmessage	-10.7662
▁trect	-10.7668
▁getcurrent	-10.7796
writte	-10.78
▁fmul	-10.7812
point	-10.782
ffc	-10.7834
var	-10.7853
▁462	-10.7901
▁draw	-10.8037
dv	-10.8051
▁cthreadlocal	-10.8073
▁guid	-10.8081
src	-10.8087
▁154	-10.8111
▁160	-10.8134
▁msg	-10.8139
dll	-10.8179
properties	-10.8181
▁1003	-10.8194
▁lstrcmp	-10.8205
▁482	-10.8261
▁mask	-10.8285
dlg	-10.8296
▁fcomp	-10.8327
▁466	-10.8336
process	-10.8342
▁485	-10.8354
▁fill	-10.8376
▁alloc	-10.8384
▁25	-10.8402
▁214	-10.8414
bch	-10.8437
▁thread	-10.8453
▁update	-10.8462
multibytetowid	-10.8475
▁vbafreeobj	-10.8493
kit	-10.8494
echar	-10.8547
▁getitem	-10.8562
▁494	-10.8567
distancetomove	-10.8584
ne	-10.8606
▁mii	-10.861
call	-10.863
▁epilog	-10.8669
▁null	-10.8679
▁rcdst	-10.8702
ffb	-10.8703
exit	-10.8758
strcpy	-10.8808
▁global	-10.882
▁systemtime	-10.8827
zoneinformation	-10.8829
carchive	-10.8854
▁getdata	-10.892
▁muls	-10.8969
▁230	-10.8978
al	-10.9013
▁close	-10.9041
▁g	-10.9051
locinfo	-10.9058
pvi	-10.9096
▁enter	-10.9099
▁ti	-10.9132
▁remove	-10.9132
▁findfiledata	-10.9141
mulp	-10.9143
st	-10.9198
ffffffc	-10.9208
add	-10.9231
▁248	-10.9261
▁4081	-10.9304
▁tfont	-10.933
param	-10.9331
▁wndclass	-10.9343
windows	-10.937
writer	-10.9389
traits	-10.9401
▁deleteobject	-10.9449
▁invoke	-10.9466
m	-10.9486
ctype	-10.9487
fffff	-10.9513
▁178	-10.9531
old	-10.9545
▁released	-10.9572
son	-10.9582
▁output	-10.9613
windowpos	-10.9629
ffd	-10.9646
enabled	-10.9647
cstring	-10.9651
outline	-10.9691
▁254	-10.9693
wat	-10.9696
stream	-10.9723
▁pt	-10.9724
▁134	-10.9737
at	-10.9759
▁473	-10.9775
▁1040	-10.9788
next	-10.9821
▁518	-10.9826
▁170	-10.9828
ror	-10.9909
▁sethandle	-10.9941
▁initialize	-10.9989
▁finalize	-10.999
etlength	-10.9995
dialog	-11.0014
▁130	-11.0031
filter	-11.0035
▁158	-11.0037
▁getdc	-11.0042
widechartomult	-11.0046
▁getcanvas	-11.0073
▁240	-11.0081
▁ppv	-11.0083
ibyte	-11.0088
accessor	-11.0097
stdio	-11.0149
rot	-11.0154
bytes	-11.0156
threadid	-11.016
▁qqrpxv	-11.0204
streambuf	-11.0211
▁qqrus	-11.0213
zonelimit	-11.0256
finditem	-11.0273
▁cch	-11.0275
▁190	-11.0275
▁1008	-11.0289
▁m	-11.0296
▁internalget	-11.0301
▁lseek	-11.0302
▁470	-11.0309
▁39	-11.0313
cxt	-11.0322
▁pointer	-11.0349
trait	-11.0405
auto	-11.0427
paint	-11.0455
▁lstrfrompchar	-11.0459
lam	-11.0469
▁290	-11.0476
▁mr	-11.0498
▁getmodulehandle	-11.05
datetime	-11.0504
▁lstrl	-11.0534
wstr	-11.0549
▁vbaobjset	-11.0554
parent	-11.0618
▁settext	-11.0627
▁1374	-11.0637
▁144	-11.0641
▁pbu	-11.0652
▁258	-11.0675
down	-11.0678
▁pshuf	-11.0681
▁268	-11.0698
▁ansistringi	-11.0703
▁40432	-11.071
grid	-11.075
▁lc	-11.0765
▁qqrpxc	-11.0776
▁wv	-11.0777
bbc	-11.0783
▁471	-11.0797
▁483	-11.0802
▁ios	-11.0803
bad	-11.0808
template	-11.0842
▁gettext	-11.0858
tidy	-11.0861
▁106	-11.0891
▁yaxpax	-11.0907
▁aaex	-11.0936
free	-11.094
▁vbastr	-11.0969
0000	-11.1001
▁raise	-11.1008
▁26	-11.1008
dynamic	-11.1017
▁csimple	-11.1022
▁481	-11.1032
high	-11.1034
k	-11.1137
▁heap	-11.1143
▁4098	-11.1145
int	-11.1146
▁new	-11.1228
▁character	-11.1245
▁69	-11.1263
▁260	-11.1296
▁474	-11.1297
▁8000000	-11.1307
▁475	-11.1331
▁setbk	-11.1334
▁224	-11.1358
▁begin	-11.137
▁472	-11.1379
facet	-11.1385
end	-11.1394
▁qaex	-11.1399
▁qaepavc	-11.1416
drag	-11.1437
ctrl	-11.145
▁cr	-11.1458
mfc	-11.1469
integer	-11.1484
▁cbdata	-11.1487
ffe	-11.149
▁fist	-11.1528
▁setwindowlong	-11.1556
▁204	-11.1567
context	-11.1613
services	-11.162
▁intto	-11.1634
▁pvargdest	-11.1662
▁decode	-11.169
def	-11.1692
▁stw	-11.17
sys	-11.1708
format	-11.1749
▁init	-11.1773
▁sz	-11.1775
up	-11.1794
▁copyunwind	-11.1796
▁lwz	-11.1836
▁fldz	-11.1848
300	-11.1911
cy	-11.1963
▁qrc	-11.1987
▁188	-11.2003
kernel	-11.2014
▁4149	-11.2035
and	-11.2055
▁vbafreevar	-11.2069
er	-11.2082
▁gu	-11.2141
▁479	-11.2237
hxz	-11.2244
▁lstrlen	-11.2266
tformat	-11.2298
hmem	-11.2455
subkey	-11.2467
exchange	-11.2524
form	-11.253
nwidth	-11.255
fillrect	-11.2578
▁showwindow	-11.2603
▁150	-11.2611
dq	-11.2631
pathname	-11.2634
▁exceptioninfo	-11.2635
▁800000	-11.2723
time	-11.2729
▁ansistringx	-11.2729
dest	-11.274
▁start	-11.2774
▁488	-11.2802
▁catch	-11.2803
▁loadstring	-11.2811
▁punpckl	-11.2828
▁492	-11.2843
▁ttheme	-11.2856
▁tstrings	-11.2858
dec	-11.2862
error	-11.2882
processid	-11.2901
digit	-11.2918
▁800	-11.2919
rgb	-11.2924
▁do	-11.2931
▁return	-11.2946
▁2000	-11.2974
cdata	-11.2985
▁unwind	-11.3006
▁ext	-11.3018
▁indexof	-11.3019
pv	-11.3106
▁guard	-11.3132
▁bt	-11.3155
imp	-11.3169
▁internal	-11.317
▁8002000	-11.3173
▁register	-11.3175
▁winhelp	-11.3183
▁270	-11.3185
fxch	-11.3187
adc	-11.319
▁padd	-11.3196
▁invalidate	-11.3237
abv	-11.3247
view	-11.3285
▁lpfile	-11.3304
information	-11.3343
emset	-11.3344
▁colorto	-11.335
▁wstrfrom	-11.3351
▁mbs	-11.3359
▁148	-11.3364
arg	-11.3368
dqu	-11.3388
bitmap	-11.3399
▁250	-11.3407
▁qqrpxvi	-11.3441
dlgitem	-11.349
▁ccmd	-11.3504
wndproc	-11.3514
23500	-11.3523
ahi	-11.3528
▁multi	-11.3551
▁sah	-11.3562
help	-11.3573
▁vbafreestr	-11.3595
cgdi	-11.3617
loc	-11.3626
hint	-11.3641
createcompatible	-11.367
tp	-11.3686
bec	-11.3711
▁1009	-11.3713
▁insert	-11.3773
createobject	-11.3776
014	-11.3779
tain	-11.379
▁enable	-11.3823
574	-11.3828
funcinfo	-11.3837
blt	-11.3862
▁typ	-11.387
▁476	-11.3876
▁ansistringt	-11.3902
▁10001	-11.391
runtime	-11.3935
pos	-11.394
path	-11.3943
▁ansistringpx	-11.3948
exstyle	-11.398
smallpoint	-11.3992
▁4028	-11.3998
▁4078	-11.3999
g	-11.4004
404	-11.4023
getvalue	-11.4034
▁actn	-11.4036
artype	-11.4041
ffef	-11.4043
▁318	-11.4067
addref	-11.4083
▁flt	-11.4105
▁getmem	-11.4123
cursorpos	-11.4136
ixz	-11.4139
169	-11.4142
eed	-11.4181
▁getsystemmetric	-11.4249
dword	-11.4292
themes	-11.4311
delete	-11.4343
app	-11.4359
▁loop	-11.4402
colecontrolsite	-11.4419
ups	-11.4481
▁14001	-11.4496
▁ygxpavc	-11.4514
tail	-11.4518
▁sgpavc	-11.4542
▁send	-11.456
▁ttreenode	-11.458
▁244	-11.4583
▁getdlgitem	-11.4592
▁499	-11.4608
tm	-11.4608
gpav	-11.4612
▁end	-11.4632
▁destroy	-11.4635
oo	-11.4654
sizeinbytes	-11.4698
lk	-11.4704
▁encode	-11.4708
fac	-11.4725
▁vba	-11.4745
▁paueh	-11.4806
code	-11.4827
ing	-11.4841
▁mb	-11.4846
dname	-11.4884
▁tcustomaction	-11.4893
620	-11.4919
hkey	-11.4924
lg	-11.4925
▁nabv	-11.4943
wcsicmp	-11.4966
▁qaehi	-11.4966
pci	-11.4972
▁ygxh	-11.4973
icall	-11.4979
opy	-11.5001
▁487	-11.5013
▁main	-11.5024
▁184	-11.5026
▁fadd	-11.5061
▁31	-11.5068
▁477	-11.5087
lower	-11.5092
cdb	-11.5131
▁rol	-11.5149
▁ii	-11.5154
func	-11.516
▁278	-11.5162
▁colecontrolsite	-11.5165
icon	-11.5165
dae	-11.5178
com	-11.519
kind	-11.5198
byte	-11.5238
create	-11.5241
▁174	-11.5263
▁copy	-11.5277
windowrect	-11.5281
toscreen	-11.5282
▁tscrollingwi	-11.5305
▁tpen	-11.5331
▁getdevice	-11.5338
abc	-11.536
▁nid	-11.536
event	-11.5366
▁adjust	-11.5372
wcscpy	-11.5372
464	-11.5382
▁4013	-11.5387
exc	-11.5391
▁8000001	-11.541
▁k	-11.5412
▁101	-11.5413
ncontrol	-11.5423
▁804	-11.5439
▁put	-11.5442
▁exceptionrecord	-11.5442
mon	-11.5446
▁getlocale	-11.5458
▁qaexh	-11.548
ref	-11.5482
▁480	-11.5484
860	-11.5512
caps	-11.5608
zone	-11.5614
▁un	-11.562
▁reset	-11.5626
▁489	-11.5663
tag	-11.5664
▁40000000	-11.5669
standard	-11.567
630	-11.5673
▁484	-11.5728
▁486	-11.5745
csr	-11.5759
▁ygpavc	-11.576
▁tbyte	-11.5763
again	-11.5791
▁1639	-11.5804
123	-11.583
▁addi	-11.5833
lr	-11.5835
prop	-11.5837
inc	-11.585
align	-11.5852
▁osf	-11.5857
▁478	-11.5907
setvalue	-11.5949
▁amin	-11.5961
cdh	-11.5975
cchlength	-11.6038
▁4129	-11.6055
▁assign	-11.6055
bits	-11.6063
dwmap	-11.6068
▁1004	-11.6069
entry	-11.6077
▁equal	-11.6085
000000	-11.6087
fffffef	-11.6101
notification	-11.6111
scan	-11.6116
decrement	-11.6145
▁lstrfrom	-11.6201
▁4014	-11.622
▁afxmaph	-11.6247
focus	-11.6249
▁4160	-11.6268
▁yahpau	-11.6283
▁495	-11.6285
eded	-11.6286
▁4025	-11.6301
checked	-11.6313
220	-11.6345
▁callwindowproc	-11.6348
▁startupinfo	-11.6355
▁4010	-11.6371
iconi	-11.6372
globals	-11.6397
▁300	-11.641
▁getobject	-11.6425
▁palign	-11.6428
▁validate	-11.644
▁postmessage	-11.6441
itcommoncontrols	-11.6461
▁skip	-11.6488
▁psz	-11.6518
▁getbound	-11.652
▁xmldoc	-11.6535
▁psrl	-11.6536
capture	-11.6549
converte	-11.6553
▁14001191	-11.656
▁274	-11.6571
bcf	-11.6574
brush	-11.6582
▁105	-11.6583
▁4079	-11.6597
out	-11.6599
resultcheck	-11.66
resource	-11.6605
rcr	-11.6621
▁required	-11.663
▁4033	-11.664
bfe	-11.6641
timeasfiletime	-11.6673
▁toutlinenode	-11.6673
increment	-11.6687
crts	-11.6692
check	-11.6694
750	-11.6703
▁40904	-11.6709
im	-11.6728
▁fdiv	-11.6745
listbox	-11.6752
states	-11.6794
▁drawtext	-11.6794
eeh	-11.6797
▁4034	-11.6841
1992	-11.6866
tion	-11.6891
▁crtlcmapstring	-11.6925
▁4126	-11.6929
▁getmodule	-11.6964
ansistringpc	-11.6966
bbb	-11.6978
▁140	-11.698
avdname	-11.698
▁353	-11.7008
▁298	-11.708
▁dynarray	-11.7091
▁afxgetthread	-11.7092
▁4093	-11.7103
▁qqrxus	-11.7139
▁gs	-11.7146
lf	-11.716
▁334	-11.7162
▁4061	-11.7169
▁flush	-11.7169
part	-11.7178
▁cdialog	-11.7187
lib	-11.7207
close	-11.7216
▁fls	-11.7229
▁4091	-11.7237
year	-11.7292
6824	-11.7351
decorat	-11.7355
▁cchcount	-11.7362
050	-11.7363
dfc	-11.7381
▁inflate	-11.7385
▁bstr	-11.7389
ccmd	-11.7402
show	-11.7406
634	-11.7419
setnew	-11.7473
▁getvalue	-11.75
▁getdesktop	-11.7504
650	-11.7521
chandle	-11.7534
button	-11.7545
points	-11.7548
ios	-11.7589
extrw	-11.7612
160	-11.7617
readbuffer	-11.7625
token	-11.7662
▁attach	-11.769
▁cpinfo	-11.7699
▁getkey	-11.772
▁qbepav	-11.7728
caption	-11.7731
new	-11.7777
handlene	-11.7795
▁tcollection	-11.7804
▁10010	-11.7812
all	-11.7817
cast	-11.7819
adapter	-11.782
▁4183	-11.7831
▁pexecinfo	-11.7837
▁lstrcpyn	-11.7838
filenamea	-11.7913
▁491	-11.792
▁4000	-11.7921
pop	-11.7937
edge	-11.7953
▁strtox	-11.797
cpinfo	-11.7995
▁points	-11.8007
520	-11.8028
▁4038	-11.8037
790	-11.8044
▁4065	-11.8072
ffffffa	-11.8078
▁111	-11.8084
▁40107	-11.8093
tvardatax	-11.812
cvt	-11.8127
▁val	-11.8141
▁wcscat	-11.8141
▁notify	-11.8159
▁qbek	-11.8159
release	-11.8177
▁mode	-11.8179
parametersinfo	-11.8189
▁4036	-11.8195
▁4047	-11.821
▁40999	-11.824
900	-11.8253
▁4689	-11.8255
root	-11.826
▁10036	-11.8261
srect	-11.8269
wrapper	-11.8274
▁local	-11.8279
▁ygjpau	-11.8281
1628	-11.8321
408	-11.8323
▁translate	-11.833
▁control	-11.8335
410	-11.8343
float	-11.8352
▁strcmp	-11.8389
▁lcmapstring	-11.841
dfh	-11.8415
▁4108	-11.8424
cursor	-11.8427
cbe	-11.8437
abu	-11.8445
▁defwindowproc	-11.8465
840	-11.8474
▁ismbb	-11.8483
▁lprc	-11.8503
erator	-11.8504
▁fp	-11.8505
▁writebuffer	-11.8517
▁strtoint	-11.8518
▁getvisible	-11.8526
▁nnum	-11.8536
▁140014	-11.8543
bfd	-11.8551
▁4044	-11.8571
835	-11.8575
▁yg	-11.8579
bcd	-11.8588
▁intersect	-11.859
ctl	-11.8603
custom	-11.8609
▁hobject	-11.8609
500	-11.8609
▁sse	-11.8612
font	-11.8623
430	-11.8624
destruc	-11.8641
op	-11.8655
fffffffffffffff	-11.8656
▁pcmpeq	-11.866
ator	-11.8684
▁agettheme	-11.8697
▁14003	-11.8709
strncpy	-11.8712
entries	-11.8714
▁vcrt	-11.8743
110	-11.8772
header	-11.8773
▁fileop	-11.8779
100	-11.8784
608	-11.882
▁4118	-11.8823
inthread	-11.8832
test	-11.8841
bid	-11.8855
nden	-11.8857
omin	-11.8859
▁354	-11.8863
wcsncpy	-11.8932
▁4026	-11.8937
▁pslld	-11.8939
▁tm	-11.8942
▁common	-11.8953
access	-11.8966
▁pat	-11.8973
faf	-11.8987
▁4048	-11.9022
bdc	-11.9032
▁realloc	-11.9032
▁cmov	-11.9038
▁10008	-11.9045
aae	-11.9059
▁498	-11.9063
0940	-11.9091
▁findcontrol	-11.9099
dbb	-11.9101
function	-11.9115
cbsize	-11.9123
▁100000	-11.9179
unlock	-11.9179
▁psrld	-11.9183
▁4015	-11.9185
▁qqrip	-11.9186
treeview	-11.9212
▁lpnew	-11.9214
▁264	-11.9219
tagdibsection	-11.9268
▁qaehh	-11.9272
lea	-11.9272
query	-11.9304
▁num	-11.9313
▁getheight	-11.932
▁4117	-11.9322
bcc	-11.9326
▁createwindowex	-11.9327
atom	-11.9334
▁14004	-11.9342
attributes	-11.9352
▁psll	-11.9357
▁493	-11.9368
▁14002	-11.937
cfile	-11.9395
▁lpname	-11.9404
▁14008	-11.9412
newh	-11.9417
eec	-11.9421
▁setl	-11.9422
470	-11.9427
pavc	-11.9434
fde	-11.9435
small	-11.945
▁ygp	-11.9455
ddc	-11.9459
▁ticon	-11.9464
▁qqrynpqqr	-11.9489
▁tthread	-11.9491
▁expand	-11.9491
▁getwindowtext	-11.9511
▁103459	-11.9518
fmtbcd	-11.9537
▁handler	-11.954
▁afxget	-11.9541
commctrl	-11.9557
finally	-11.9557
ast	-11.9571
from	-11.9574
▁as	-11.9576
▁tmetafile	-11.9577
▁phicon	-11.9577
▁tdrag	-11.9583
▁aw	-11.9599
ervices	-11.9601
▁varfrom	-11.9602
flush	-11.961
▁sleep	-11.9611
fbb	-11.9611
▁4130	-11.9616
descendant	-11.9635
▁165	-11.9642
icomp	-11.9663
dprop	-11.9667
bfa	-11.9672
bee	-11.9675
cdialog	-11.9693
▁tcreateparams	-11.9696
version	-11.9701
▁10009	-11.9731
month	-11.9733
action	-11.9739
spin	-11.977
intf	-11.9773
hlib	-11.9784
▁cwin	-11.9789
space	-11.9793
▁getcomponent	-11.9817
▁4060	-11.9818
▁pvar	-11.9826
▁tdataset	-11.9834
▁strl	-11.984
▁4046	-11.9844
▁peekmessage	-11.9854
▁createfile	-11.9855
▁tlistitem	-11.9856
fbc	-11.9857
▁10002	-11.9862
olevariant	-11.9886
fcd	-11.9893
▁ni	-11.9929
▁40590	-11.9929
6810	-11.9946
▁4022	-11.9949
890	-11.9949
▁4082	-11.995
▁4032	-11.9974
▁ftol	-11.9976
submenu	-11.9981
▁compare	-11.9987
360	-12.0001
▁twmkey	-12.0017
▁getdockclient	-12.0018
▁varto	-12.0027
▁4045	-12.0037
gclose	-12.005
range	-12.0053
▁4059	-12.0058
▁twmmouse	-12.0058
▁dest	-12.0065
4150	-12.0073
▁func	-12.0079
▁41505	-12.0082
bde	-12.0082
▁lpsrc	-12.0086
dfd	-12.0088
▁dst	-12.0092
320	-12.0095
▁4071	-12.0107
term	-12.0115
fbd	-12.0117
824	-12.012
command	-12.0122
▁getthread	-12.0131
▁qaek	-12.0145
▁4152	-12.0154
load	-12.0167
▁getcapture	-12.0186
020	-12.0195
▁4122	-12.02
abb	-12.0223
▁afxunlock	-12.0245
▁paint	-12.026
cba	-12.0269
690	-12.0279
ii	-12.0283
▁4119	-12.0303
210	-12.0307
▁filetime	-12.0316
▁14007	-12.0331
▁314	-12.0338
▁loadlibrarya	-12.0348
clip	-12.0352
▁4153	-12.0355
▁1641	-12.0356
towc	-12.0357
▁4037	-12.0362
018	-12.0365
▁readstr	-12.0366
ns	-12.0369
bdb	-12.0372
bba	-12.0381
004	-12.039
▁cmovn	-12.0391
▁wndpl	-12.0392
▁enum	-12.0397
▁4039	-12.0402
1688	-12.0432
▁4055	-12.045
▁81	-12.0452
▁freeze	-12.0454
▁4088	-12.0457
910	-12.0477
cat	-12.0478
cbc	-12.0483
▁himl	-12.0499
▁rtc	-12.0521
▁regqueryvalueex	-12.0522
lmul	-12.0544
▁4583	-12.0548
▁setstyle	-12.0573
ynpqqr	-12.0574
ffffffb	-12.0594
▁tpropinfo	-12.0594
▁virtualalloc	-12.0599
▁hfile	-12.0606
dac	-12.0614
▁seterror	-12.0633
qau	-12.0637
010	-12.0638
250	-12.0639
▁ostream	-12.0653
▁ygh	-12.0657
▁4051	-12.0664
▁getsyscolor	-12.0673
▁qeaa	-12.0677
aba	-12.0689
assert	-12.0694
▁ungetc	-12.0706
dwlow	-12.0711
bca	-12.0716
wday	-12.0738
▁4069	-12.0745
bce	-12.076
record	-12.0761
▁getst	-12.0778
▁4164	-12.0785
memory	-12.0787
▁4095	-12.0794
of	-12.0797
950	-12.0799
▁4023	-12.0801
fec	-12.0805
table	-12.0818
▁getsystem	-12.0819
flt	-12.082
7363	-12.0822
▁regopenkeyex	-12.0823
▁4103	-12.0835
it	-12.0848
618	-12.0848
wndclass	-12.0854
▁cleanup	-12.0869
pair	-12.0872
isleadbyte	-12.0872
▁getmonitor	-12.0894
▁afxin	-12.0894
▁14006	-12.0894
▁4109	-12.09
▁122	-12.0909
▁4137	-12.0917
valuename	-12.0921
▁setfocus	-12.0939
▁pbstr	-12.094
status	-12.094
tpicture	-12.0949
▁4154	-12.0956
▁4121	-12.097
▁4052	-12.0971
▁ansistringr	-12.0976
open	-12.0997
ebb	-12.1003
458	-12.1007
904	-12.101
notify	-12.1024
▁append	-12.1028
▁4042	-12.1031
listview	-12.1034
▁from	-12.1035
component	-12.1046
▁4157	-12.1047
577	-12.1051
▁4151	-12.1063
deman	-12.1065
padi	-12.1065
▁yaxpau	-12.1112
130	-12.1115
▁ole	-12.1124
09837	-12.1147
▁getclassname	-12.1168
▁4127	-12.1169
▁getform	-12.1174
434	-12.1174
▁strcat	-12.1177
filetime	-12.1179
method	-12.1181
▁4582	-12.1197
lpszclass	-12.1208
exitcode	-12.1209
▁sysallocstring	-12.1211
▁q	-12.1212
▁tgraphic	-12.1212
670	-12.122
bound	-12.1225
▁10012	-12.1227
▁4106	-12.1237
▁geticon	-12.1239
▁400000	-12.1242
machine	-12.1258
▁getmenu	-12.1263
fffffd	-12.1263
▁100418	-12.1264
performancecount	-12.1281
▁4112	-12.1291
▁cmap	-12.1292
040	-12.1302
▁setcursor	-12.1302
▁ansi	-12.1306
▁wtoi	-12.1307
nana	-12.1322
▁afls	-12.1332
skb	-12.1335
afc	-12.1345
bef	-12.1349
bac	-12.1352
▁4020	-12.1365
indirect	-12.137
egrou	-12.1374
ndwindow	-12.1375
fore	-12.1381
aab	-12.1384
cmd	-12.1387
8000	-12.1389
os	-12.1392
108	-12.1397
wi	-12.1397
▁stm	-12.1407
060	-12.1428
messagebox	-12.1444
▁4135	-12.1454
▁grid	-12.1459
008	-12.1473
480	-12.149
bfb	-12.149
bdf	-12.1492
ebc	-12.1509
▁findresource	-12.1512
daylight	-12.1513
▁4064	-12.1515
170	-12.1517
input	-12.1527
pfngetdefwndproc	-12.154
rp	-12.154
001	-12.1548
aee	-12.1551
▁4156	-12.1571
▁4217	-12.1573
on	-12.158
▁getsto	-12.1588
subclass	-12.1588
normal	-12.1599
pmode	-12.1604
ident	-12.1609
190	-12.1612
▁pautag	-12.1618
bbf	-12.1623
▁4113	-12.1628
424	-12.1629
▁4057	-12.1631
▁4029	-12.1643
▁use	-12.1644
▁4155	-12.167
▁4364	-12.1672
origin	-12.1684
▁ydname	-12.1689
aec	-12.1693
dwi	-12.1696
▁4124	-12.1711
▁4027	-12.1716
310	-12.1717
▁piconinfo	-12.1732
138	-12.1743
pbxi	-12.1752
198	-12.1758
▁4145	-12.1763
▁4063	-12.177
▁tls	-12.1779
▁10006	-12.1782
▁fucomp	-12.1783
acc	-12.1785
▁4107	-12.1786
▁4035	-12.1787
lineto	-12.1788
▁4043	-12.1791
aea	-12.18
sp	-12.1801
240	-12.1803
109	-12.1803
▁scale	-12.1809
146	-12.1824
560	-12.1827
crtgetstringtype	-12.183
dock	-12.183
▁4087	-12.1831
828	-12.1835
390	-12.1836
oexit	-12.1845
030	-12.185
radix	-12.1854
bed	-12.1869
ds	-12.187
▁4115	-12.1876
background	-12.1879
flatsb	-12.1897
document	-12.1898
child	-12.1908
perr	-12.191
stretchblt	-12.1913
aac	-12.1918
dis	-12.1923
▁calc	-12.1925
▁libm	-12.1936
▁4187	-12.1938
ace	-12.1946
▁last	-12.195
▁4019	-12.1952
▁ttypeinfo	-12.1954
▁jo	-12.1972
▁tmousebutton	-12.1978
element	-12.1979
▁4134	-12.1989
▁401000	-12.1989
260	-12.2009
▁10011	-12.2029
▁4169	-12.2031
▁movewindow	-12.2031
▁4066	-12.2037
0020	-12.2039
▁abs	-12.2044
820	-12.2051
00001	-12.2053
scrollbars	-12.2053
▁vbavar	-12.2054
▁globalalloc	-12.2054
▁4040	-12.2065
▁tfield	-12.2076
▁40518	-12.2077
▁4200	-12.2083
last	-12.2102
bae	-12.2106
080	-12.2107
caa	-12.2111
254	-12.2116
328	-12.2118
shift	-12.2139
forsingleobject	-12.2154
744	-12.2155
returned	-12.2157
700	-12.2177
▁810	-12.2178
▁qaepauh	-12.218
initcommoncont	-12.2191
644	-12.2192
▁dwexception	-12.2198
stk	-12.2206
▁getcursor	-12.2211
▁charupperbuff	-12.223
▁psid	-12.2231
▁4084	-12.2257
▁default	-12.2268
▁aav	-12.2269
970	-12.227
stp	-12.2279
dcae	-12.2279
▁ptin	-12.2282
▁twm	-12.2282
▁4053	-12.229
▁4018	-12.2291
tstr	-12.2296
▁qbeh	-12.2297
bfc	-12.2305
systemtime	-12.231
▁abqbd	-12.2328
wctomb	-12.2333
helper	-12.2333
874	-12.2334
efh	-12.2334
▁10007	-12.2353
dhandle	-12.2353
▁4125	-12.2353
reserved	-12.2354
▁4111	-12.2361
▁qqruiui	-12.2371
107	-12.2372
▁4811	-12.2374
▁4102	-12.2374
present	-12.2382
▁external	-12.2385
▁round	-12.2394
abs	-12.2395
▁afxfind	-12.2406
caccessor	-12.2406
▁qav	-12.2411
▁varcopy	-12.2411
osma	-12.2413
wcsnicmp	-12.2425
414	-12.244
442	-12.245
000014	-12.2454
▁getstringtype	-12.246
▁tmouse	-12.2465
974	-12.2496
paxpbu	-12.2497
efc	-12.2507
0000001	-12.2508
▁4147	-12.2512
▁hres	-12.2517
760	-12.253
▁4086	-12.2552
964	-12.2555
▁4041	-12.2567
▁in	-12.2571
▁realize	-12.2575
handledexception	-12.2579
▁4100	-12.2585
▁zp	-12.2591
fab	-12.2601
▁4162	-12.2602
▁4142	-12.2605
▁fsub	-12.2611
▁4050	-12.262
▁aguictrlcreate	-12.2621
370	-12.2629
▁psa	-12.263
▁mt	-12.263
able	-12.2632
628	-12.2637
beb	-12.2637
▁trectp	-12.2644
000007	-12.2659
▁10000000	-12.266
▁4092	-12.2663
▁make	-12.268
eef	-12.2683
980	-12.2683
ddb	-12.2688
▁first	-12.269
▁iaej	-12.2699
▁4181	-12.2706
iterator	-12.2707
lead	-12.2717
580	-12.272
218	-12.2731
fileattributes	-12.2735
aav	-12.2738
799	-12.2753
▁facet	-12.2753
▁8101010	-12.2755
efefef	-12.2755
▁ansistr	-12.276
▁8000400	-12.2762
▁4561	-12.2764
▁getnext	-12.2789
rm	-12.2801
controlbar	-12.2808
▁aae	-12.2815
ld	-12.2816
bcb	-12.2819
▁4174	-12.2836
▁zero	-12.2837
endofli	-12.2838
510	-12.2858
698	-12.2869
▁setfilepointer	-12.2877
▁10013	-12.2881
lpdes	-12.2886
▁loadresource	-12.289
buttons	-12.2895
▁320	-12.2899
▁tmetaclassp	-12.29
▁00422	-12.2901
dom	-12.2907
▁4428	-12.2918
▁txmlnode	-12.2918
▁rcsrc	-12.2924
▁qaej	-12.2928
▁10014	-12.2931
getthemes	-12.2943
▁qqrrpvpv	-12.2945
swap	-12.2945
▁readfil	-12.2948
▁getindex	-12.2951
▁4031	-12.2954
▁freecontext	-12.2955
▁tthemedelement	-12.2962
▁version	-12.2971
▁4085	-12.2975
▁324	-12.2976
▁4101	-12.2977
group	-12.3
▁sgxpau	-12.3008
▁4172	-12.3009
dda	-12.301
windowmessage	-12.3012
▁lpadd	-12.3014
connection	-12.3018
▁4136	-12.3054
lpsz	-12.3059
▁getinterface	-12.3065
▁4182	-12.3066
▁157	-12.3071
864	-12.3072
msize	-12.3076
one	-12.31
▁4144	-12.3115
ain	-12.3124
▁4030	-12.3139
334	-12.3141
▁4104	-12.3145
▁4054	-12.3155
▁getactive	-12.3168
830	-12.3174
ptd	-12.3175
paxpax	-12.3188
▁abad	-12.3193
▁4139	-12.3193
▁4021	-12.3193
realloc	-12.3199
fce	-12.3203
eac	-12.3217
desired	-12.3223
▁frnd	-12.3223
edc	-12.3228
▁4049	-12.323
lp	-12.323
nd	-12.3231
▁4167	-12.3233
▁4094	-12.3234
444	-12.3235
▁4173	-12.3237
420	-12.3238
▁4176	-12.3239
▁lis	-12.3243
▁yah	-12.3243
rit	-12.325
384	-12.3252
defaultchar	-12.3264
868	-12.3265
ify	-12.3279
▁lpproc	-12.328
▁10346	-12.3288
▁getprocess	-12.3293
▁adod	-12.3301
258	-12.3301
bff	-12.3303
classname	-12.3308
▁4467	-12.331
120	-12.3335
cfe	-12.3342
ize	-12.3357
efd	-12.336
bpl	-12.3363
▁fclose	-12.3364
▁domouse	-12.3365
▁4062	-12.3373
▁globalun	-12.3375
fffffe	-12.3401
▁lu	-12.3406
eek	-12.341
page	-12.3416
▁211	-12.3417
▁tryblockmap	-12.3425
▁moveto	-12.3439
002	-12.344
cmdline	-12.3441
hour	-12.3466
▁pp	-12.3476
fffffffd	-12.3481
▁yapavc	-12.3481
▁gettoplevel	-12.3481
▁4207	-12.349
fffd	-12.3495
▁4143	-12.3496
▁4194	-12.3506
ss	-12.3509
▁4259	-12.3513
850	-12.3517
024	-12.354
▁4192	-12.3541
manager	-12.3546
ecc	-12.3546
▁re	-12.355
throw	-12.3551
xpapax	-12.3565
▁4186	-12.3568
▁tcommon	-12.3569
▁10016	-12.3572
eba	-12.3574
popupmenu	-12.3575
▁1400118	-12.3592
▁iij	-12.3597
0000000	-12.3598
bdd	-12.36
ps	-12.3603
▁widestringi	-12.3618
dbc	-12.3623
scrt	-12.3626
loop	-12.3627
▁getfile	-12.3629
▁4240	-12.3633
▁debug	-12.3634
dcf	-12.3649
▁avar	-12.3658
994	-12.3659
▁aflatsb	-12.3668
trli	-12.3676
▁4372	-12.368
▁pb	-12.3684
getdlgc	-12.3686
▁cm	-12.3696
▁urlcomponents	-12.3705
▁tid	-12.3716
fffffc	-12.3717
rowset	-12.3718
918	-12.3723
afa	-12.3724
▁4114	-12.3727
324	-12.3746
▁102	-12.3749
▁input	-12.3755
▁newfile	-12.3764
5840	-12.3765
798	-12.3768
▁variantcopy	-12.3777
man	-12.3778
▁fcom	-12.3787
916	-12.3797
▁4017	-12.3811
▁4096	-12.3818
buffercount	-12.3821
▁4208	-12.3822
lpfn	-12.3834
▁setsize	-12.3849
290	-12.3849
▁4116	-12.3864
▁getclassinfo	-12.3865
masked	-12.3867
pau	-12.3869
dde	-12.3871
988	-12.3876
second	-12.3877
▁setmenu	-12.3881
owner	-12.3886
xgpautag	-12.3894
▁4016	-12.3905
▁msxml	-12.3907
fffe	-12.3918
▁iae	-12.3919
▁restored	-12.3923
dab	-12.3924
comctl	-12.3934
660	-12.3942
cec	-12.3943
initialize	-12.3947
804	-12.3949
ncmd	-12.3953
▁ansistringri	-12.3954
▁4550	-12.3963
fmt	-12.3966
6719	-12.3967
270	-12.3979
fea	-12.398
▁4024	-12.3988
edf	-12.399
530	-12.3993
▁4056	-12.4005
pbu	-12.4012
▁4161	-12.4018
ym	-12.4033
bbd	-12.4034
▁rtlunwind	-12.4046
▁1018	-12.4047
▁4420	-12.4052
▁4072	-12.4054
▁4248	-12.4059
▁4566	-12.4061
624	-12.4067
▁4058	-12.4073
drawtext	-12.4076
gj	-12.4079
▁20630	-12.4088
▁4132	-12.4101
failure	-12.4107
▁4171	-12.4111
684	-12.4118
▁terminate	-12.4123
iijh	-12.4125
▁ygpauh	-12.4128
▁4180	-12.4148
▁4168	-12.415
rec	-12.4153
calendar	-12.4169
990	-12.417
mouse	-12.4182
rgn	-12.4191
timer	-12.4192
▁signal	-12.4211
▁isw	-12.4214
▁4163	-12.4216
ffa	-12.4222
▁4083	-12.4224
cdf	-12.4225
callnexthook	-12.4231
▁bit	-12.4235
field	-12.4239
440	-12.4244
ade	-12.4244
▁allocate	-12.4245
968	-12.4246
ead	-12.4249
erase	-12.425
▁imagebase	-12.4267
009	-12.4268
▁cmc	-12.4268
460	-12.4269
134	-12.4273
baa	-12.4275
bbe	-12.4287
usus	-12.4288
reference	-12.4292
▁virtualfree	-12.4294
▁dokey	-12.4297
aca	-12.4306
330	-12.4307
cmenu	-12.4312
▁lpch	-12.4316
054	-12.4319
▁4223	-12.4322
▁strdup	-12.4327
▁hinst	-12.4328
counter	-12.4329
▁4255	-12.4347
▁4190	-12.435
▁4148	-12.4358
▁unpck	-12.436
451	-12.4362
▁4158	-12.4365
fs	-12.438
▁4073	-12.4385
bea	-12.4387
▁setb	-12.4389
htmlelement	-12.4389
450	-12.4397
▁4128	-12.4397
▁4185	-12.4405
▁4133	-12.4415
▁element	-12.4416
millis	-12.442
914	-12.4423
link	-12.4424
avv	-12.4424
rsec	-12.4426
changetype	-12.4428
▁qaekp	-12.4428
lb	-12.4434
930	-12.4441
▁4140	-12.4442
fef	-12.4443
▁4184	-12.4444
registerclass	-12.4451
econds	-12.4452
380	-12.4455
▁tfiler	-12.4455
▁convert	-12.4457
valuetype	-12.4463
ncode	-12.4468
aef	-12.4485
▁getprop	-12.449
▁context	-12.4492
datasource	-12.4498
280	-12.4505
abe	-12.4509
▁qqruip	-12.4512
958	-12.4513
▁psub	-12.4516
038	-12.4522
848	-12.4527
▁41900	-12.4527
anchor	-12.4536
▁gettickcount	-12.4539
fae	-12.454
▁lpvalue	-12.4541
▁328	-12.4544
▁lprcsrc	-12.4549
▁messagebox	-12.4558
004012	-12.4561
770	-12.4562
▁rclsid	-12.4565
dwsize	-12.4567
aed	-12.4574
rolse	-12.4576
▁txml	-12.4578
200	-12.4588
▁detach	-12.459
268	-12.4593
▁4203	-12.4601
cbf	-12.4615
▁4131	-12.4621
724	-12.4629
▁4195	-12.4629
▁getversion	-12.4642
▁4196	-12.4645
▁4099	-12.4645
onexit	-12.4646
▁back	-12.4646
iii	-12.4648
num	-12.4651
▁loadlibraryex	-12.4654
▁294	-12.4654
▁fseek	-12.4658
▁4570	-12.466
▁496	-12.4662
▁4305	-12.4663
▁4193	-12.4676
hittest	-12.4677
uirx	-12.4685
16387	-12.4689
abf	-12.47
▁10004	-12.4702
720	-12.4704
▁uid	-12.4705
▁4080	-12.4709
cab	-12.4712
udlg	-12.4719
ada	-12.4736
▁4110	-12.4745
efe	-12.4748
▁4225	-12.4757
fffffdf	-12.4765
192	-12.4772
▁getfor	-12.4774
▁40942	-12.4779
global	-12.4779
ddf	-12.478
418	-12.4795
near	-12.4797
▁710	-12.4797
▁4472	-12.4798
existing	-12.48
228	-12.4807
fed	-12.4811
▁4218	-12.4819
104	-12.4825
378	-12.4846
▁getmenuiteminfo	-12.4848
▁4123	-12.4862
▁288	-12.4866
▁tpropinfox	-12.4883
afb	-12.4888
▁timage	-12.4893
▁4089	-12.4901
▁of	-12.4902
664	-12.4905
stm	-12.4907
rchr	-12.4908
▁loadicon	-12.4909
toperation	-12.4915
▁4237	-12.4923
658	-12.4931
▁103	-12.4932
▁safearray	-12.494
contextrecord	-12.4943
▁getenhmetafile	-12.4944
▁4231	-12.4949
851	-12.4954
284	-12.4954
mgr	-12.4976
cluster	-12.4976
afe	-12.4976
938	-12.4981
▁aull	-12.4981
▁talign	-12.4985
curitydescriptor	-12.4992
in	-12.4992
▁4097	-12.4996
saved	-12.4997
daf	-12.5004
▁4201	-12.5006
194	-12.5013
dfe	-12.502
810	-12.5023
998	-12.5029
stack	-12.5036
▁4441	-12.5039
180	-12.5041
070	-12.5043
container	-12.5044
is	-12.5048
948	-12.5056
▁au	-12.506
▁4076	-12.5066
▁setactive	-12.5069
680	-12.5069
▁frameunwindto	-12.5078
▁qbehpbu	-12.5079
566	-12.5087
▁qqrpx	-12.5102
fcb	-12.5105
▁tbasicaction	-12.5112
▁lpaddress	-12.5113
assign	-12.5118
02402	-12.5123
▁gettop	-12.5133
▁readstring	-12.5139
▁destroywindow	-12.5145
▁ismbc	-12.5146
told	-12.5156
pr	-12.5162
mount	-12.517
▁loadcursor	-12.518
▁yghpauh	-12.5183
ced	-12.5185
fcf	-12.5188
▁cnt	-12.5189
ctime	-12.5194
954	-12.5197
746	-12.5198
cmanager	-12.5205
528	-12.5211
hbm	-12.5217
ity	-12.5217
▁yapeav	-12.5219
fdc	-12.522
▁558	-12.523
shortcut	-12.5233
▁4177	-12.5236
▁310	-12.5237
▁4070	-12.524
▁uaeh	-12.5246
minute	-12.5249
windowshookex	-12.5249
chk	-12.525
▁4544	-12.5265
fbf	-12.5272
used	-12.5279
dcb	-12.528
710	-12.5283
aaa	-12.5285
baf	-12.5295
▁tfloatvalue	-12.5318
▁4303	-12.5325
614	-12.5335
▁qqrpcpxc	-12.5338
858	-12.5339
topleft	-12.5352
▁nan	-12.5353
▁qqrj	-12.5354
▁cftoe	-12.5365
hbr	-12.5369
638	-12.5373
createparams	-12.5386
▁caxpav	-12.5388
▁ctl	-12.5393
▁4175	-12.5394
897	-12.5398
▁mbc	-12.5406
▁4205	-12.5412
▁getmenuitem	-12.5419
loaded	-12.5426
▁4166	-12.5434
utype	-12.544
794	-12.5441
▁copyimage	-12.5459
140	-12.5467
▁255	-12.5468
558	-12.5474
▁lstrcpy	-12.5479
virtualprocessor	-12.5494
▁parse	-12.5502
111	-12.5508
▁4209	-12.5514
358	-12.5519
754	-12.5519
allocation	-12.5521
▁qbexpautag	-12.5529
230	-12.5529
▁datetimeto	-12.5533
920	-12.5551
▁4222	-12.5552
adf	-12.5555
688	-12.5563
▁pinputs	-12.5565
▁atol	-12.5565
▁4244	-12.5565
▁filetimeto	-12.5566
▁14009	-12.5568
298	-12.5572
▁4253	-12.5575
lw	-12.5578
▁4245	-12.5579
▁yahh	-12.5584
398	-12.5585
428	-12.5587
▁10019	-12.5594
▁4074	-12.5598
▁hdcsrc	-12.5604
▁10005	-12.5605
insrw	-12.5607
▁cvt	-12.5608
740	-12.5608
▁133	-12.5609
comobj	-12.561
▁4179	-12.5613
▁1650	-12.5614
090	-12.5617
▁4277	-12.5618
▁4188	-12.5621
dcd	-12.5622
menuitem	-12.5629
594	-12.5635
hinttimer	-12.5636
681	-12.5641
te	-12.5643
efb	-12.5644
▁45789	-12.5648
fad	-12.565
694	-12.5658
registry	-12.5659
870	-12.5666
ede	-12.5669
atty	-12.5672
▁vbanew	-12.5672
cdd	-12.5674
mainwnd	-12.5679
▁4216	-12.5685
▁idglobal	-12.5708
179	-12.5718
▁4189	-12.572
▁4635	-12.5725
events	-12.5726
deb	-12.573
▁45717	-12.5731
icmp	-12.5733
▁cwd	-12.5736
944	-12.5737
dockclient	-12.5742
058	-12.5745
▁tdragobject	-12.5746
cfc	-12.5747
bbfc	-12.575
▁tbits	-12.5753
▁4236	-12.5766
788	-12.5772
448	-12.5775
abd	-12.5775
▁setwindow	-12.5778
▁4165	-12.578
aaf	-12.5786
efa	-12.5787
934	-12.5791
vuipx	-12.5792
▁dy	-12.5797
▁4178	-12.5802
▁disable	-12.5804
▁4560	-12.5807
▁setparent	-12.5809
▁4075	-12.5812
▁4215	-12.5815
ules	-12.5817
02510	-12.5826
null	-12.5829
tostr	-12.5834
340	-12.5843
708	-12.5847
buffers	-12.5853
388	-12.5857
▁229	-12.5858
aad	-12.5861
▁4202	-12.5865
1070	-12.5867
294	-12.5872
▁4400	-12.5873
▁358	-12.5883
offset	-12.5884
cda	-12.5884
▁4146	-12.5889
dimension	-12.5891
▁4363	-12.5891
▁10015	-12.5897
▁4608	-12.5906
▁4394	-12.5907
share	-12.5907
184	-12.5907
▁4141	-12.5909
ccc	-12.5926
▁4206	-12.5927
▁41172	-12.5928
0123456789	-12.5928
338	-12.5947
7270	-12.5951
158	-12.5952
currentdirectory	-12.5959
▁function	-12.5969
ip	-12.5969
ddd	-12.597
▁exit	-12.5971
▁4478	-12.5976
▁code	-12.5985
▁wi	-12.5992
▁lstrcmpi	-12.5994
sec	-12.5996
818	-12.5997
cxxframehandler	-12.5998
logic	-12.6001
progid	-12.6002
▁dwnumberofbytes	-12.6005
168	-12.6008
518	-12.6023
▁1400113	-12.6023
bidimode	-12.6024
currentprocess	-12.6024
884	-12.6032
748	-12.6037
tshared	-12.6039
▁floattostr	-12.6039
940	-12.6041
xi	-12.6041
elementcount	-12.6043
880	-12.6045
▁qqrg	-12.6051
▁qaepav	-12.6053
▁44009	-12.6054
tpos	-12.6066
337	-12.6073
iantchangetype	-12.6074
610	-12.6077
▁4257	-12.608
▁varfromint	-12.6082
▁4211	-12.6082
cac	-12.6083
ebf	-12.6103
chtext	-12.6105
598	-12.6113
split	-12.6114
▁createfont	-12.6116
long	-12.6127
544	-12.6127
▁qbepax	-12.6129
▁setm	-12.6134
526	-12.6135
▁ais	-12.6136
▁findfirstfile	-12.6136
▁4219	-12.614
978	-12.6141
02612	-12.6149
▁unhook	-12.6152
rome	-12.6153
468	-12.6169
▁4251	-12.617
▁4484	-12.6173
large	-12.6174
▁4233	-12.6176
20640	-12.6184
490	-12.6198
ent	-12.6216
▁4483	-12.6216
▁tfile	-12.6224
crtgetlocaleinfo	-12.623
rn	-12.6233
163	-12.6237
▁4397	-12.6241
cbitmap	-12.6247
924	-12.6253
▁shift	-12.6255
▁4322	-12.626
shr	-12.6263
work	-12.6275
▁280	-12.6277
738	-12.6291
▁4562	-12.6299
isprocessorfea	-12.6304
▁defdlgproc	-12.6305
238	-12.6315
▁setprop	-12.6318
std	-12.6333
clipboard	-12.6341
▁4138	-12.6349
204	-12.6351
ecf	-12.6354
cenum	-12.6373
▁4159	-12.6373
▁dwinfo	-12.638
668	-12.6387
728	-12.6396
▁40538	-12.6396
cae	-12.6402
▁scheduler	-12.6404
▁4423	-12.6408
▁4373	-12.6409
▁4463	-12.6411
▁4090	-12.6418
accessibleproxy	-12.642
cpaint	-12.6422
034	-12.6423
sprintf	-12.6428
▁4068	-12.6431
winap	-12.6435
678	-12.6436
lpstr	-12.6457
▁140003	-12.6462
▁trecto	-12.6463
▁4170	-12.647
▁1400034	-12.647
▁getor	-12.6479
pointto	-12.6482
title	-12.6484
column	-12.6489
sfrom	-12.6507
350	-12.6511
▁4260	-12.6516
eaa	-12.6521
lookup	-12.6531
▁4197	-12.6533
▁ftell	-12.6537
cancelmode	-12.6537
478	-12.6538
wlong	-12.6554
▁4246	-12.6569
gg	-12.6572
splitter	-12.6577
mbcinfo	-12.6577
▁widestringrx	-12.658
▁00403	-12.6581
▁4120	-12.6592
898	-12.6598
params	-12.6604
▁330	-12.6608
▁4191	-12.661
▁coc	-12.6613
iobu	-12.6615
▁inherit	-12.6615
▁4067	-12.6619
erman	-12.6621
dwflags	-12.6625
▁tpropinfoi	-12.6631
fffffee	-12.6644
▁dbg	-12.6645
▁4199	-12.6647
destination	-12.6649
▁4235	-12.6652
03321	-12.666
035	-12.666
▁4254	-12.6671
ecd	-12.6689
fda	-12.6691
scale	-12.6693
299	-12.6694
▁4475	-12.6697
maxchar	-12.67
928	-12.6701
▁10003	-12.6706
600	-12.6709
▁4221	-12.6715
▁4439	-12.6718
023	-12.6719
import	-12.6721
▁4224	-12.6722
npos	-12.6727
128	-12.6733
960	-12.6735
wsagetlasterro	-12.6736
▁getstartupinfo	-12.6736
888	-12.6747
▁10017	-12.6749
224	-12.6753
▁ctor	-12.6757
570	-12.6762
319	-12.6768
▁utag	-12.6771
▁auser	-12.6776
fbe	-12.6784
▁4243	-12.6788
▁localfiletime	-12.679
▁113	-12.6802
words	-12.6803
ffffc	-12.6805
758	-12.6824
daa	-12.6832
▁162	-12.6835
▁4213	-12.6835
dispatch	-12.6839
125	-12.6853
195	-12.6856
▁cotaskmem	-12.6856
kindof	-12.6857
mplayer	-12.686
dad	-12.6861
▁4409	-12.6866
▁lpparam	-12.687
▁qaexi	-12.6875
bab	-12.6876
▁tpointoo	-12.6877
768	-12.6885
ansistring	-12.6885
308	-12.69
simple	-12.6909
imagebase	-12.6909
paxi	-12.6919
alalloc	-12.6926
▁4242	-12.6928
▁pps	-12.693
adb	-12.6936
▁continue	-12.6938
▁4212	-12.6938
stgopen	-12.6938
lconv	-12.6941
block	-12.6943
▁beq	-12.6953
006	-12.6954
▁45701	-12.696
▁wm	-12.6965
▁132	-12.6971
panel	-12.6979
ture	-12.6982
▁fltout	-12.6983
get	-12.7005
▁ueaa	-12.7011
plex	-12.7012
394	-12.7012
686	-12.7013
acf	-12.702
▁lpprev	-12.7021
ded	-12.7029
stringresource	-12.703
005	-12.7036
318	-12.7039
dce	-12.704
▁4229	-12.7061
statf	-12.7069
cee	-12.7069
▁1010	-12.7078
eee	-12.7089
▁4204	-12.7095
654	-12.7097
setor	-12.71
dbd	-12.7101
ipbxi	-12.7102
▁4232	-12.7113
▁4263	-12.7117
▁globalfree	-12.7118
cde	-12.712
▁4287	-12.7123
▁45652	-12.7126
▁4389	-12.713
▁4393	-12.7138
▁4228	-12.714
645	-12.7141
454	-12.7142
dfa	-12.7142
upper	-12.7143
▁getmdichild	-12.7148
fcc	-12.7155
364	-12.7158
faa	-12.7158
▁afxlock	-12.7159
aak	-12.7159
▁cmovb	-12.7165
▁setscroll	-12.7171
264	-12.7174
coledispatch	-12.7176
▁4198	-12.7179
caf	-12.7182
▁ygpavcw	-12.7186
▁trystrto	-12.7187
▁4422	-12.7188
▁42026	-12.7189
348	-12.7193
▁comparestring	-12.7194
socket	-12.7203
▁4298	-12.7208
292	-12.7215
▁4381	-12.7215
▁41865	-12.722
▁oserr	-12.7227
▁1640	-12.7228
▁qqsui	-12.7229
fbbc	-12.7231
▁clsid	-12.7238
▁4365	-12.7241
edd	-12.7252
844	-12.7254
▁repe	-12.7262
▁avb	-12.7269
▁4230	-12.7269
▁yahpbu	-12.7272
661	-12.7273
tmonitor	-12.7275
▁qaehpauh	-12.7276
▁prepare	-12.7277
▁tparam	-12.7285
446	-12.7286
cce	-12.729
cef	-12.7299
▁2045	-12.7306
▁4234	-12.7318
854	-12.7323
02086	-12.7324
584	-12.7338
▁45688	-12.7344
774	-12.7344
▁exp	-12.7349
player	-12.7352
▁1993052	-12.7356
156	-12.7361
▁lpapp	-12.7363
114	-12.7363
tmemory	-12.7364
▁vbai	-12.7373
148	-12.7387
▁3000	-12.7397
getlastactivep	-12.7399
och	-12.7408
488	-12.741
low	-12.7415
special	-12.7418
section	-12.7421
▁4829	-12.7429
category	-12.7441
▁qaepau	-12.7442
▁4616	-12.7444
▁numberofchars	-12.7455
215	-12.7456
▁found	-12.7462
widestring	-12.7471
▁4679	-12.7475
466	-12.7476
▁4473	-12.7479
▁40510	-12.7496
276	-12.7496
dba	-12.7501
setlocale	-12.7504
▁4105	-12.7514
044	-12.7519
hprocess	-12.7527
▁wsprintf	-12.7529
908	-12.7532
▁4568	-12.754
tfields	-12.754
destroy	-12.7544
wait	-12.7544
hotkey	-12.7548
bmih	-12.7548
878	-12.7554
208	-12.7557
▁4391	-12.7558
▁sizein	-12.7559
eab	-12.7561
374	-12.7573
288	-12.7574
524	-12.7578
feb	-12.7579
fffffbf	-12.758
▁4290	-12.7583
▁4239	-12.7583
privateprofile	-12.7585
dst	-12.759
588	-12.7596
▁stat	-12.7599
▁4493	-12.7612
984	-12.7633
426	-12.7637
kki	-12.7637
▁argument	-12.7639
fwrite	-12.7645
▁setrect	-12.7652
590	-12.7661
▁4299	-12.7665
237	-12.7668
media	-12.768
687	-12.7686
rc	-12.77
321	-12.7704
▁aba	-12.7708
▁bi	-12.7713
▁setun	-12.7715
▁40136	-12.7716
255	-12.7728
fba	-12.773
▁qaepad	-12.7736
▁129	-12.7736
fca	-12.774
674	-12.7742
conv	-12.7745
▁updatetlocinfo	-12.7747
▁004035	-12.7749
autagdb	-12.7749
780	-12.7752
▁4563	-12.7758
uc	-12.7774
256	-12.7789
▁setwindowtext	-12.779
▁afxcritical	-12.7792
floating	-12.7793
▁setbidimode	-12.7794
vcl	-12.7794
controla	-12.7797
550	-12.7802
▁364	-12.7804
▁10020	-12.7809
578	-12.7826
▁4345	-12.7827
▁4407	-12.7833
fmode	-12.7833
▁4690	-12.7835
▁4286	-12.7838
048	-12.784
sink	-12.784
children	-12.7843
▁dwdata	-12.7844
778	-12.7845
▁4288	-12.7846
kl	-12.7852
0049	-12.7857
248	-12.7857
▁yghi	-12.7865
▁4565	-12.7879
acd	-12.7884
wctype	-12.7885
354	-12.7889
368	-12.7899
894	-12.7911
▁4270	-12.7911
▁40506	-12.7914
689	-12.7921
▁qaehpax	-12.7929
ass	-12.793
dcc	-12.7937
540	-12.7941
▁4497	-12.7943
site	-12.7946
▁4283	-12.7955
730	-12.796
driver	-12.796
▁small	-12.7967
▁charnext	-12.7968
dea	-12.7969
▁4226	-12.797
▁bytespers	-12.7974
640	-12.7983
279	-12.7984
957	-12.7986
▁4537	-12.7993
▁4496	-12.7995
494	-12.8004
currency	-12.8004
pipe	-12.8006
filebuf	-12.8006
▁avc	-12.8007
▁4250	-12.8016
▁fontdesc	-12.8017
▁4377	-12.8017
422	-12.8018
afd	-12.8026
▁123	-12.8031
vec	-12.8033
sil	-12.8041
hhk	-12.8047
▁getsize	-12.805
with	-12.805
il	-12.8054
eedfad	-12.8063
150	-12.8064
▁4273	-12.8069
domain	-12.8077
▁aerror	-12.8091
▁astring	-12.8108
▁if	-12.8109
ime	-12.8114
▁dwn	-12.812
▁4306	-12.8121
▁151	-12.8124
405	-12.8149
▁41836	-12.815
server	-12.8157
147	-12.8158
empty	-12.8164
▁fsubr	-12.8166
▁4605	-12.817
▁cmfc	-12.8175
491	-12.8178
▁wcsn	-12.8183
dee	-12.8185
acb	-12.8187
▁155	-12.819
▁4398	-12.8193
▁pacl	-12.8201
▁crtfls	-12.8201
indirecta	-12.8209
▁4150	-12.8214
▁4485	-12.8219
▁supports	-12.8224
▁pand	-12.8229
getactivewindo	-12.8232
cbd	-12.8239
fdd	-12.8242
resize	-12.8244
bstr	-12.8245
items	-12.8247
matherr	-12.8247
dbf	-12.8252
124	-12.8258
▁gettype	-12.8282
▁4340	-12.8285
▁4571	-12.8289
▁4619	-12.829
dfb	-12.8291
printer	-12.8292
windoworg	-12.8294
▁trunc	-12.8294
▁mtinitlock	-12.8294
kdll	-12.8295
▁aiv	-12.8296
bdfa	-12.8297
568	-12.8299
▁ygxpaxi	-12.8301
nt	-12.8306
▁10032	-12.8309
nth	-12.8313
▁unhandled	-12.8321
execute	-12.8323
▁4518	-12.8332
cfd	-12.8332
423	-12.8338
nonwritable	-12.8341
enter	-12.8345
ampm	-12.8346
▁4366	-12.8347
718	-12.8361
764	-12.8365
118	-12.8367
▁4258	-12.8368
278	-12.8374
keyboardstate	-12.8375
commandline	-12.8385
xaccessible	-12.8388
tmultireadexcl	-12.8388
▁cptol	-12.8389
▁4489	-12.839
▁setrange	-12.8392
814	-12.8393
648	-12.8393
▁cftof	-12.8402
ius	-12.8409
▁ansistringrx	-12.8414
734	-12.8423
usive	-12.8435
5824	-12.8437
synchronizer	-12.8437
▁dwflags	-12.8437
extex	-12.8449
▁4281	-12.845
409	-12.8455
▁4548	-12.8457
spec	-12.8459
▁getlist	-12.846
ccd	-12.847
▁304	-12.8471
user	-12.848
6414	-12.8481
hicon	-12.8487
▁4471	-12.8492
environment	-12.8492
▁4220	-12.8493
▁4609	-12.8496
534	-12.8497
▁4256	-12.8497
▁4641	-12.8499
▁4640	-12.85
07667	-12.8504
▁tstreami	-12.8505
▁osfh	-12.851
freestring	-12.8512
bool	-12.8518
▁4481	-12.8519
▁4252	-12.853
▁wto	-12.8534
▁keyst	-12.8539
▁crtinit	-12.8542
store	-12.8544
cbb	-12.8551
▁370	-12.8555
▁freedata	-12.8555
▁4586	-12.8568
▁4618	-12.8569
665	-12.857
▁aru	-12.8577
▁findcomponent	-12.8579
ccf	-12.858
▁4249	-12.858
▁getfield	-12.858
aah	-12.8583
▁4574	-12.859
164	-12.8597
▁4567	-12.8603
▁41019	-12.8607
▁grow	-12.8608
214	-12.862
▁4621	-12.8625
▁asoftware	-12.8627
▁4462	-12.863
▁4275	-12.8637
▁ygx	-12.8647
▁4435	-12.8649
hli	-12.8665
188	-12.8667
cfa	-12.8672
mdichild	-12.8673
▁4585	-12.868
▁textto	-12.8683
407	-12.8695
259	-12.8704
007	-12.8705
property	-12.8716
hk	-12.8718
▁1014	-12.8718
955	-12.8727
▁4336	-12.8727
fls	-12.8734
bit	-12.8735
808	-12.8753
▁flsall	-12.8756
hookwindow	-12.8768
▁4534	-12.8771
▁shortcutto	-12.8774
clsid	-12.8777
movz	-12.8779
154	-12.8784
▁4266	-12.8795
▁wch	-12.8799
▁4646	-12.8803
▁addl	-12.8808
draw	-12.8812
▁4285	-12.8816
▁agui	-12.8822
▁cprocesslocal	-12.8823
msgbox	-12.8823
▁vartow	-12.8828
strchr	-12.883
▁4448	-12.8834
▁iocounters	-12.8843
178	-12.8844
▁age	-12.8853
tbuf	-12.8856
fdf	-12.886
queryperformance	-12.8873
▁4339	-12.8874
ebd	-12.8877
dwtype	-12.8881
fee	-12.8884
▁4539	-12.8887
▁yaxqa	-12.8902
tab	-12.8903
▁4693	-12.8906
▁4241	-12.8906
▁4654	-12.8909
▁4573	-12.8912
▁4349	-12.8915
canvas	-12.8916
▁hhhh	-12.8918
▁internalrethink	-12.8922
bidimodeflags	-12.8922
▁palignloop	-12.8923
▁treeitem	-12.8923
createsolid	-12.8927
▁4456	-12.8957
bar	-12.8963
▁por	-12.8972
eq	-12.8972
dff	-12.8975
▁4477	-12.8979
5750	-12.8982
bcp	-12.8988
▁1007	-12.899
▁4521	-12.8991
define	-12.8992
default	-12.8999
▁1003209	-12.9002
▁4687	-12.9009
▁ho	-12.901
aligne	-12.9012
▁loadbitmap	-12.9023
▁4399	-12.9024
▁4676	-12.9031
▁4401	-12.9044
▁4438	-12.9049
▁drive	-12.9053
▁getversionex	-12.9057
agent	-12.9059
tr	-12.9063
delimite	-12.9068
▁4529	-12.9068
setting	-12.9068
▁4437	-12.9071
244	-12.9072
vcvariantbool	-12.9073
▁4272	-12.9075
▁2001	-12.9078
274	-12.9084
▁4309	-12.9095
412	-12.9095
▁cpu	-12.9112
028	-12.9113
▁qqriii	-12.912
438	-12.9123
▁openprocess	-12.9125
▁safearrayget	-12.9127
▁4792	-12.9128
51704	-12.9134
▁4269	-12.9139
▁4648	-12.914
▁4449	-12.9149
changes	-12.9161
maxcount	-12.9161
▁4459	-12.9162
▁inf	-12.9163
359	-12.9167
▁systeminfo	-12.917
childnotify	-12.9175
▁maskgetc	-12.9175
output	-12.9177
eaf	-12.9179
▁ygipbd	-12.9181
▁4318	-12.9183
▁4835	-12.9187
▁4603	-12.9189
242	-12.9191
tlast	-12.9197
704	-12.92
numof	-12.92
▁getimage	-12.9203
▁4265	-12.9206
▁qaexpbd	-12.9211
039	-12.9219
pidl	-12.9221
ffffffffffffffe	-12.9222
463	-12.9223
▁current	-12.9225
▁iaehpb	-12.9225
▁setdlgitemtext	-12.9226
▁dispatchmessage	-12.9228
▁4227	-12.9233
▁pbdi	-12.9242
▁4392	-12.9244
▁4552	-12.9249
▁sqlex	-12.9255
▁350	-12.9264
pal	-12.9265
▁40766	-12.9267
▁4447	-12.9268
▁4264	-12.9268
edef	-12.9268
482	-12.927
439	-12.9271
▁4538	-12.9273
refl	-12.9276
▁trail	-12.9277
▁qqrpcui	-12.928
▁4505	-12.9281
▁setalign	-12.9287
env	-12.929
▁yahi	-12.9295
189	-12.9301
win	-12.9302
temp	-12.9303
▁numberofbytesre	-12.9308
localfiletime	-12.9311
▁regsetvalueex	-12.933
dims	-12.933
▁112	-12.9335
▁45703	-12.9337
un	-12.9339
▁4756	-12.9343
listctrl	-12.9349
465	-12.9351
094	-12.9352
▁4368	-12.9353
▁4429	-12.9357
▁sysfree	-12.936
▁4302	-12.9373
▁4291	-12.938
▁getfullpathname	-12.9381
tolecontrol	-12.9381
fdb	-12.9382
▁getcustomform	-12.9383
▁1066	-12.9383
▁readint	-12.9384
▁tcursor	-12.9391
538	-12.9395
tbidimode	-12.9396
251	-12.9396
copyup	-12.94
err	-12.94
▁getint	-12.94
cole	-12.9401
dup	-12.9409
toen	-12.941
▁4347	-12.9411
656	-12.9411
ncurrent	-12.9413
cad	-12.9421
509	-12.9421
222	-12.9425
alnum	-12.9428
▁dtor	-12.9434
▁afxload	-12.9435
uid	-12.944
01094	-12.9443
459	-12.9443
▁490	-12.9461
bah	-12.9462
tchange	-12.9472
▁4642	-12.9472
▁4613	-12.9473
strnicmp	-12.9475
253	-12.9477
▁tpersistent	-12.9477
▁4410	-12.9478
▁4680	-12.9481
564	-12.9481
469	-12.9484
▁yapbu	-12.9487
▁4468	-12.9491
▁121	-12.9495
397	-12.9506
▁4295	-12.9507
▁4617	-12.9508
▁4238	-12.9509
yn	-12.9511
04951	-12.9514
▁131	-12.9516
active	-12.9527
652	-12.9533
362	-12.9534
▁vbaary	-12.9539
slot	-12.9539
▁getpixel	-12.954
074	-12.9542
▁4644	-12.9543
235	-12.9553
714	-12.9554
▁unpack	-12.9556
▁qbepavc	-12.9574
▁10022	-12.9579
▁smallpoint	-12.9588
▁getdefault	-12.9591
▁4454	-12.9595
▁4445	-12.9595
▁1038	-12.9607
116	-12.9609
▁4361	-12.9614
447	-12.9616
151	-12.9617
▁replace	-12.962
685	-12.9624
▁4279	-12.9641
▁fucom	-12.9644
done	-12.9648
239	-12.9672
▁163	-12.9686
dbbc	-12.9688
▁agetthemesys	-12.9691
729	-12.9696
▁vcptr	-12.9703
▁4403	-12.9715
▁20000000	-12.9717
▁182	-12.9717
versioninfosize	-12.9719
▁4451	-12.9721
▁4424	-12.9721
225	-12.9722
▁4601	-12.9722
▁4474	-12.9726
834	-12.9734
304	-12.9736
qqrx	-12.9751
▁4404	-12.9751
flag	-12.9754
▁80000	-12.9758
▁paj	-12.9759
▁4632	-12.9761
▁4479	-12.9761
dacl	-12.9768
▁4425	-12.977
▁twincontroloo	-12.9772
copydown	-12.9773
▁4267	-12.9775
▁4386	-12.9777
scroll	-12.978
▁acontrol	-12.9784
cfb	-12.9786
▁4628	-12.979
416	-12.9793
379	-12.9799
▁4864	-12.9802
▁4633	-12.9808
daylightda	-12.9812
ext	-12.9815
▁abah	-12.9815
const	-12.9816
▁4353	-12.982
177	-12.9822
crit	-12.9827
▁qqruirx	-12.9828
1001	-12.9835
platform	-12.9839
eca	-12.9843
▁4845	-12.9848
372	-12.985
stringa	-12.9858
00021	-12.986
placement	-12.9863
▁isvalid	-12.9864
▁4793	-12.9865
498	-12.9871
edb	-12.9872
fromstr	-12.9887
▁bind	-12.989
▁10018	-12.9903
▁qqrrui	-12.9903
975	-12.9904
▁utf	-12.9906
393	-12.9909
▁1065	-12.9912
▁ctypedptrlist	-12.9918
deadb	-12.9919
▁setmon	-12.9926
▁yahpax	-12.9927
485	-12.9929
▁4276	-12.9931
▁127	-12.9933
▁4342	-12.9936
keyboardlayout	-12.9936
475	-12.9937
▁createevent	-12.9939
▁4488	-12.9941
▁setclient	-12.9942
timestamp	-12.9951
011	-12.9951
password	-12.9954
szsrc	-12.9963
ccb	-12.9964
▁202	-12.9967
▁4350	-12.997
▁have	-12.997
▁getmenuitemi	-12.9971
righttoleft	-12.9973
dnamestatus	-12.9973
▁136	-12.9976
▁10034	-12.9976
234	-12.9977
▁4271	-12.9984
▁detail	-12.9999
484	-13.0001
ffffbff	-13.0003
▁4396	-13.0003
ghpauh	-13.0005
▁4542	-13.0014
▁getcommandline	-13.0017
▁4460	-13.0025
reason	-13.0029
10048	-13.0031
source	-13.0052
▁4323	-13.0066
▁4670	-13.0073
▁4465	-13.0074
▁4442	-13.0074
▁afxhandle	-13.0075
699	-13.0078
vk	-13.0078
▁4587	-13.009
743	-13.0094
line	-13.0095
838	-13.0106
▁4210	-13.0112
474	-13.0115
▁4317	-13.012
▁103472	-13.0143
136	-13.015
548	-13.0152
098	-13.0154
129	-13.0155
▁haavc	-13.0157
▁4657	-13.0159
456	-13.0159
▁4458	-13.0164
▁10021	-13.0165
picture	-13.0169
243	-13.0174
▁ainvalid	-13.0178
▁4431	-13.018
dbe	-13.0184
▁aulld	-13.0184
▁4607	-13.0188
385	-13.0189
▁money	-13.0191
fullpath	-13.0196
virtualquery	-13.0197
▁4620	-13.0198
112	-13.0204
▁284	-13.0208
174	-13.021
▁ygpau	-13.0212
236	-13.0226
▁4470	-13.0232
▁getmessage	-13.0234
406	-13.0241
tanimate	-13.0249
unk	-13.0253
▁exttextout	-13.0254
▁lods	-13.0254
cid	-13.0258
20038	-13.0258
▁pmulh	-13.0261
▁ygxpautag	-13.0262
ofl	-13.0264
▁4502	-13.0274
▁tpointr	-13.0276
▁isc	-13.0277
682	-13.028
▁max	-13.0285
527	-13.0288
883	-13.0289
cca	-13.0292
▁4406	-13.0292
▁4452	-13.0302
4100	-13.0303
dayof	-13.0308
▁4546	-13.0308
banner	-13.0311
unhookwindow	-13.0317
973	-13.033
26862	-13.0332
▁qaehpb	-13.0334
proc	-13.0342
▁qbd	-13.0351
▁4367	-13.0356
▁4516	-13.036
enhmetafile	-13.0366
eedfae	-13.0369
▁findhandler	-13.0372
▁show	-13.0374
lrem	-13.0378
427	-13.0379
▁ppsa	-13.0381
eda	-13.0386
355	-13.0389
▁1005	-13.0394
257	-13.0396
need	-13.0397
395	-13.0398
745	-13.0407
213	-13.0421
decrypt	-13.0426
▁gmtime	-13.0426
globalcomponent	-13.0426
▁41876	-13.0427
▁156	-13.0427
▁ymm	-13.0427
▁vbastrvar	-13.0429
▁4500	-13.0431
pmd	-13.0435
252	-13.0435
order	-13.044
▁4292	-13.0443
▁4214	-13.0444
▁4278	-13.0456
043	-13.0457
344	-13.0465
165	-13.0466
handling	-13.0467
▁kill	-13.047
▁1400799	-13.0474
402	-13.0475
▁4289	-13.0477
▁4369	-13.0478
▁differ	-13.0485
available	-13.0486
▁ttimer	-13.049
437	-13.0491
▁4433	-13.0491
▁getrange	-13.0492
144	-13.0496
xo	-13.0498
000008	-13.0499
▁140001	-13.0499
▁getbk	-13.0503
▁4362	-13.0505
▁4294	-13.0512
796	-13.0512
▁4639	-13.052
▁4541	-13.0521
▁4380	-13.0523
784	-13.0523
▁4532	-13.0524
any	-13.0525
765	-13.0525
▁4656	-13.0531
▁4698	-13.0544
getsystempalette	-13.0545
sg	-13.0547
▁findnextfile	-13.0558
▁4434	-13.0563
▁10028	-13.0569
▁ygxpau	-13.0574
▁sizeof	-13.0579
▁4486	-13.058
435	-13.0581
elements	-13.0583
356	-13.0585
cwidth	-13.0585
▁empty	-13.0588
press	-13.0594
kbyt	-13.0602
▁pcmpgt	-13.0602
▁updatebounds	-13.0602
▁1007677	-13.0607
▁localtime	-13.0607
▁tbcd	-13.0613
449	-13.0615
▁8003000	-13.0616
disp	-13.062
7280	-13.0626
▁4515	-13.0635
291	-13.0645
▁vt	-13.0647
codecvt	-13.0647
fld	-13.0647
▁xn	-13.0648
343	-13.065
dca	-13.0651
▁46899	-13.0651
▁setcap	-13.0655
▁20634	-13.0658
▁makloc	-13.0661
▁idattach	-13.0661
▁4494	-13.0661
tstringlist	-13.0661
createthread	-13.0663
▁ctoolbar	-13.0664
addatom	-13.0666
▁aguictrlset	-13.0669
hhaah	-13.0675
▁4261	-13.0677
▁4598	-13.068
▁initp	-13.0683
▁4293	-13.0687
266	-13.0687
▁4599	-13.0696
▁4707	-13.0698
▁4351	-13.0699
▁4446	-13.0703
▁4354	-13.0704
atl	-13.0718
▁4375	-13.0718
389	-13.0718
alfree	-13.072
activateactctx	-13.072
▁wpa	-13.0726
363	-13.0729
▁4659	-13.0735
▁pse	-13.0737
▁173	-13.0751
823	-13.0751
▁4828	-13.0776
▁qqrpc	-13.0776
▁4247	-13.0779
▁qbepbv	-13.0782
295	-13.0782
229	-13.0787
265	-13.0787
20019	-13.0789
▁4346	-13.0791
183	-13.0792
▁pauc	-13.0804
inbuffer	-13.0822
▁yghpbd	-13.0828
▁4387	-13.083
369	-13.0837
▁yapaxpaueh	-13.0841
▁yapaxpax	-13.0841
000409	-13.0842
▁tow	-13.0843
▁hhpa	-13.0843
hotkeys	-13.0846
columnn	-13.0848
314	-13.0849
927	-13.0853
01060	-13.0853
svc	-13.0858
▁4421	-13.0861
966	-13.0865
▁4413	-13.0876
▁4827	-13.088
xmldoc	-13.088
▁acombobox	-13.0882
▁callcatchblock	-13.089
162	-13.0893
336	-13.0893
181	-13.0899
▁totalnumberof	-13.0901
▁4307	-13.0913
313	-13.0916
rlwi	-13.0922
theme	-13.0926
▁4296	-13.0931
▁4504	-13.0934
▁4385	-13.0939
▁4596	-13.0941
big	-13.0942
535	-13.0944
▁4592	-13.0944
433	-13.0944
▁ansistringus	-13.0949
▁4691	-13.0951
909	-13.0955
803	-13.0961
▁4543	-13.0962
▁setdragcursor	-13.0963
323	-13.0966
▁40137	-13.0975
733	-13.0976
▁yd	-13.0978
▁4357	-13.0982
tod	-13.0984
▁4610	-13.0987
▁4359	-13.0988
▁4319	-13.099
4320	-13.099
▁pavc	-13.1007
▁4408	-13.1008
756	-13.1025
▁yaxpav	-13.1028
▁4636	-13.1029
▁20000	-13.1032
102	-13.1036
477	-13.1037
▁4426	-13.1043
▁activate	-13.1048
▁41839	-13.1048
gxpavc	-13.1052
▁4492	-13.1058
▁qaehpavc	-13.1061
155	-13.1063
064	-13.1065
▁4412	-13.107
abh	-13.1083
187	-13.1084
922	-13.1084
▁psizl	-13.1085
szlmicrometers	-13.1085
▁4629	-13.1089
kq	-13.1095
▁pmul	-13.1098
▁10043	-13.1105
▁4590	-13.1112
▁lpparameter	-13.1115
▁4844	-13.1121
▁3043	-13.1123
▁4411	-13.1123
▁lpstr	-13.1128
▁testdefault	-13.1128
051	-13.1133
825	-13.1134
▁10030	-13.1141
▁4384	-13.1147
lowio	-13.1147
▁qaaxpb	-13.1147
504	-13.1162
▁abu	-13.1167
hook	-13.1173
lcopy	-13.1173
▁4316	-13.1175
993	-13.1178
▁4499	-13.1184
nlength	-13.1185
▁4262	-13.1187
hhandle	-13.1188
▁abutton	-13.1188
763	-13.1189
877	-13.1193
operation	-13.1195
▁4487	-13.1195
879	-13.1196
619	-13.1199
li	-13.1202
unpckh	-13.1203
▁308	-13.1206
▁4649	-13.1216
▁10025	-13.1221
▁4677	-13.1225
127	-13.1225
▁tmetaclassx	-13.123
ct	-13.1245
562	-13.1254
▁event	-13.1258
391	-13.1261
fgetc	-13.1261
▁140065	-13.1262
▁4326	-13.1264
am	-13.1264
▁1024	-13.1269
▁4638	-13.127
bsr	-13.1271
▁45626	-13.1271
nsize	-13.1272
▁tcustomcombo	-13.1273
▁acommdlg	-13.1275
wdayof	-13.1277
▁4450	-13.128
childwindow	-13.1282
transparent	-13.1285
▁has	-13.1286
▁wchar	-13.1287
581	-13.1291
▁xcpt	-13.1299
▁4297	-13.13
▁45702	-13.1303
166	-13.1304
376	-13.1308
5810	-13.1315
293	-13.1317
▁numeric	-13.1322
▁4655	-13.1323
443	-13.1329
bias	-13.1336
precision	-13.1336
▁dwcreation	-13.1336
▁regcreatekeyex	-13.1336
rectangle	-13.1337
831	-13.1337
▁isbad	-13.1342
352	-13.1343
392	-13.1344
▁4455	-13.1344
▁const	-13.1346
options	-13.1348
▁bmi	-13.1349
eeded	-13.1351
lat	-13.1355
792	-13.1367
▁40000	-13.1375
aeh	-13.1375
953	-13.138
▁4660	-13.1387
263	-13.1388
926	-13.1388
▁4555	-13.139
▁4597	-13.1392
▁4338	-13.1393
789	-13.1394
▁ygjpavc	-13.14
lpstrfile	-13.14
▁4330	-13.1404
267	-13.1412
onevent	-13.1415
▁4626	-13.1416
049	-13.1417
105	-13.1423
▁4405	-13.143
6180	-13.1433
653	-13.1438
▁4491	-13.1441
▁368	-13.1444
015	-13.1444
cvariantbool	-13.1463
▁adrawtheme	-13.1464
catchguard	-13.1464
▁sapeav	-13.1464
▁4371	-13.1478
security	-13.1484
▁4549	-13.1497
gdi	-13.1498
▁4335	-13.1502
783	-13.1504
charset	-13.1506
514	-13.1508
931	-13.1516
▁4652	-13.1518
269	-13.1524
cocreateinstance	-13.1528
ence	-13.1529
▁ipavc	-13.1533
381	-13.1535
▁4681	-13.154
▁qeaah	-13.1552
estype	-13.1561
rust	-13.1563
333	-13.1567
▁getloc	-13.1571
▁sha	-13.1578
ment	-13.1581
492	-13.159
▁4501	-13.1591
modal	-13.1593
translatorguard	-13.1593
997	-13.1597
455	-13.1598
emf	-13.1599
▁2010	-13.1604
getcurrent	-13.1605
339	-13.1608
▁4508	-13.1611
▁qqruii	-13.1616
▁4461	-13.1621
306	-13.1634
761	-13.1642
▁yapax	-13.1647
▁4807	-13.1648
▁43708	-13.1655
▁4615	-13.1655
debugger	-13.1659
▁yghpavc	-13.1659
▁4739	-13.1662
▁4480	-13.1664
▁4580	-13.1666
lines	-13.1666
▁mbsnbic	-13.1668
▁rguid	-13.1683
▁212	-13.1688
▁4443	-13.1693
▁4402	-13.1708
abbc	-13.1708
uw	-13.1712
▁30000	-13.1713
▁4432	-13.1719
025	-13.1721
leave	-13.1721
▁extractfile	-13.1726
▁4325	-13.1729
▁4337	-13.1731
▁setfor	-13.1738
▁aq	-13.1741
508	-13.1747
▁4327	-13.1753
▁1003111	-13.1755
▁378	-13.1755
135	-13.1759
▁vbastri	-13.1762
233	-13.1772
▁4378	-13.1776
779	-13.1782
399	-13.1783
for	-13.1785
▁support	-13.1787
leadbyte	-13.1789
uppercase	-13.1791
▁4979	-13.1792
▁fdivr	-13.1792
401	-13.1795
▁tfielddef	-13.1796
vector	-13.1798
415	-13.1801
abcd	-13.1801
▁4556	-13.1802
793	-13.1805
▁ansistringp	-13.1817
▁4794	-13.1819
▁4382	-13.1821
175	-13.1824
▁4796	-13.1824
499	-13.1835
▁4341	-13.1839
▁lppoint	-13.184
013	-13.1846
487	-13.1848
▁abort	-13.1849
776	-13.1851
431	-13.1856
▁828	-13.1857
536	-13.186
633	-13.1862
▁cancel	-13.1864
▁4588	-13.187
rst	-13.1872
▁pbv	-13.1874
602	-13.1878
▁398	-13.188
▁4517	-13.1887
▁cast	-13.1889
▁4569	-13.1892
▁4348	-13.1904
▁4268	-13.1907
▁4536	-13.1913
▁4791	-13.1919
947	-13.1921
▁loadimage	-13.1923
enddefer	-13.1924
▁1034	-13.1926
▁strnc	-13.1928
▁407294	-13.1936
403	-13.1943
▁4490	-13.1946
479	-13.1953
425	-13.1953
elementdetails	-13.1966
▁4547	-13.1969
▁4457	-13.1971
▁958	-13.1975
▁construct	-13.1977
▁4395	-13.1985
▁4939	-13.1985
withf	-13.1987
qbw	-13.1994
036	-13.1995
palettechange	-13.1995
nshow	-13.2
▁4466	-13.2001
activate	-13.2003
2060	-13.2005
772	-13.2005
▁4581	-13.2017
▁10026	-13.2022
viewportorg	-13.2027
ffeb	-13.2027
▁4525	-13.2032
476	-13.2042
673	-13.2054
▁tmsdomdocument	-13.206
click	-13.2061
▁119	-13.2075
▁10029	-13.2079
676	-13.208
▁4436	-13.2082
331	-13.2082
659	-13.2084
669	-13.2093
▁4667	-13.2103
753	-13.2107
▁drawmenu	-13.211
▁140074	-13.211
put	-13.2111
▁4315	-13.2119
▁4284	-13.212
▁tmultiwaite	-13.2129
▁qaepaui	-13.2129
▁4360	-13.2141
oll	-13.215
▁4324	-13.2151
▁trim	-13.2154
▁formatmessage	-13.2164
▁4280	-13.2172
▁tthemed	-13.2175
▁4476	-13.2182
ranslator	-13.2197
min	-13.2201
▁46189	-13.2205
▁4358	-13.2209
▁4658	-13.2211
285	-13.2212
8087	-13.2213
347	-13.2235
▁10027	-13.2235
▁4383	-13.2247
extra	-13.2252
461	-13.2254
▁plu	-13.2257
992	-13.2259
084	-13.2264
▁proc	-13.2264
dragimage	-13.2266
▁sgpau	-13.2267
▁qqrpcp	-13.2267
567	-13.2268
▁qaehpa	-13.2268
639	-13.2268
crtcomparestring	-13.2269
▁4379	-13.227
▁4624	-13.2271
467	-13.2275
▁4469	-13.2284
▁4577	-13.2286
▁4419	-13.2305
▁aedit	-13.2305
▁syserror	-13.2308
▁4533	-13.2315
▁4522	-13.2317
timeout	-13.2322
▁4440	-13.2326
502	-13.2327
getmonitorinfo	-13.2328
▁pbutag	-13.2335
▁4356	-13.2336
▁44690	-13.2337
keep	-13.2337
569	-13.2341
196	-13.2346
▁6000	-13.2348
▁alld	-13.2348
▁4558	-13.2349
▁360	-13.2349
211	-13.2354
325	-13.2358
dheader	-13.2367
nested	-13.2371
493	-13.2374
rva	-13.2377
▁126	-13.2377
▁1003201	-13.2379
wchar	-13.2383
▁4301	-13.2393
625	-13.2395
▁4282	-13.2397
localtime	-13.2401
tzset	-13.2408
273	-13.2412
tregistry	-13.2413
▁4370	-13.2414
▁4464	-13.2414
escape	-13.2416
▁isind	-13.242
126	-13.2426
085	-13.2438
▁getclipboard	-13.2439
▁4663	-13.2442
▁4444	-13.2445
sb	-13.2447
▁hbr	-13.2451
▁4606	-13.2452
554	-13.2465
mfl	-13.2472
▁4528	-13.2474
▁getmsdocument	-13.2478
▁pipeattributes	-13.2478
▁unregisterclass	-13.2479
841	-13.2481
▁4328	-13.2483
eactctx	-13.2484
dsc	-13.2485
667	-13.249
▁wsa	-13.2491
proxy	-13.2496
919	-13.25
262	-13.25
anline	-13.2503
▁mbsnb	-13.2504
▁4332	-13.2505
▁4557	-13.251
949	-13.2519
▁4572	-13.252
693	-13.2522
ffee	-13.2526
bne	-13.2536
handles	-13.2538
489	-13.2543
▁iaehpau	-13.255
numsystemlocales	-13.2551
▁4331	-13.2551
uxtheme	-13.2554
525	-13.2557
153	-13.2561
hatch	-13.2562
strcmp	-13.2562
▁4593	-13.2564
351	-13.2572
▁getauto	-13.2574
dataset	-13.2596
▁4274	-13.2598
943	-13.2604
▁deletefile	-13.2609
591	-13.2617
▁4843	-13.2617
fffffec	-13.2623
771	-13.2625
▁crop	-13.2629
▁4512	-13.2631
▁exclude	-13.2634
795	-13.264
565	-13.2643
▁forc	-13.2653
▁4968	-13.2657
342	-13.2661
▁setdata	-13.2666
tcsncpy	-13.2686
969	-13.2687
▁4647	-13.2687
▁vbastrc	-13.2695
dockbar	-13.2698
119	-13.2699
▁4623	-13.27
multiple	-13.2701
▁token	-13.2703
guid	-13.2704
qqrir	-13.2706
▁4495	-13.2716
191	-13.2718
▁modifystyle	-13.272
ddown	-13.2726
346	-13.2729
xml	-13.273
▁4482	-13.2734
files	-13.2738
137	-13.2747
real	-13.2763
▁004037	-13.2764
scopetable	-13.2767
databaseerror	-13.2767
▁domodal	-13.2767
▁setbounds	-13.2769
▁es	-13.277
▁tcanvasiii	-13.2771
▁4948	-13.2773
▁asys	-13.2775
555	-13.2775
▁45628	-13.2775
rtowc	-13.2778
▁4310	-13.2781
ffree	-13.2784
appmessage	-13.279
▁sig	-13.2797
▁4304	-13.2799
722	-13.2803
556	-13.281
getenvironment	-13.2811
068	-13.2813
▁40817	-13.2814
sync	-13.2815
115	-13.2819
606	-13.2823
726	-13.2827
641	-13.2828
▁qaei	-13.2838
627	-13.2838
▁dispatch	-13.284
getscrol	-13.284
setscrol	-13.284
▁tgriddrawinfo	-13.2841
▁trackpopupmenu	-13.2841
▁iaexpau	-13.2841
▁afxgetdlg	-13.2841
▁settabstop	-13.2841
078	-13.2851
▁impl	-13.2858
▁getnextdlg	-13.286
511	-13.286
▁getenvironment	-13.2861
2710	-13.2864
▁4430	-13.2867
▁4374	-13.2869
▁139	-13.287
472	-13.2871
▁wide	-13.2873
▁100079	-13.2875
▁4312	-13.2879
▁10024	-13.2879
662	-13.288
▁papa	-13.2884
ecb	-13.2885
▁4846	-13.2888
202	-13.289
agin	-13.2894
935	-13.2896
902	-13.2901
711	-13.2902
pvobj	-13.2905
48420	-13.2906
cthread	-13.2908
▁lbz	-13.2912
677	-13.2914
751	-13.2914
▁setselected	-13.2915
▁4524	-13.2915
▁41909	-13.2916
▁4314	-13.2927
561	-13.2928
199	-13.2928
227	-13.2928
736	-13.2929
search	-13.2932
putwc	-13.2941
573	-13.2946
332	-13.2947
▁4523	-13.295
dbl	-13.2958
976	-13.2958
▁awin	-13.2961
▁gettheme	-13.2979
▁4416	-13.2981
122	-13.2986
buildcatchobject	-13.2989
▁tado	-13.299
706	-13.2994
parentbidimode	-13.2995
▁topen	-13.2999
▁4510	-13.3002
▁4937	-13.3002
▁4376	-13.3006
ihh	-13.3017
▁4840	-13.3018
▁4333	-13.3019
▁disconnect	-13.3022
ceh	-13.3022
▁lastwritetime	-13.3028
495	-13.3032
261	-13.3036
775	-13.3038
▁4564	-13.3038
249	-13.3038
419	-13.3045
rcdst	-13.3057
fbfb	-13.306
▁4627	-13.3062
formatting	-13.3064
▁afxpost	-13.3064
▁gettextmetrics	-13.3064
▁drawicon	-13.3066
429	-13.3066
907	-13.3068
604	-13.3071
▁4509	-13.3073
▁hbitmap	-13.3074
tonl	-13.3078
421	-13.3081
blue	-13.3082
925	-13.3086
setcursor	-13.309
797	-13.3094
▁getlong	-13.3099
▁4664	-13.3099
826	-13.3103
▁qaepax	-13.3106
▁43771	-13.3107
runtimeerror	-13.3114
▁4390	-13.3121
939	-13.3126
ftlastwritetime	-13.314
unused	-13.314
▁removefixup	-13.314
6240	-13.3141
▁deallocate	-13.3141
▁4506	-13.3144
▁setmm	-13.3145
imes	-13.3147
▁4622	-13.3149
739	-13.3157
707	-13.3159
741	-13.316
▁4321	-13.3162
809	-13.3168
▁140032	-13.3169
▁gv	-13.317
752	-13.3172
▁4311	-13.3173
▁notification	-13.3174
internal	-13.3177
struct	-13.3185
▁4551	-13.3185
986	-13.3186
311	-13.3188
316	-13.3193
6890	-13.3194
getcurrentthread	-13.3203
opup	-13.3204
839	-13.3204
963	-13.3204
ffffeff	-13.3205
▁creationtime	-13.3205
305	-13.321
545	-13.3212
notifyd	-13.3214
▁getchild	-13.3216
805	-13.3216
ironmentvariable	-13.3217
nlsenableim	-13.3217
▁tdrawingstyle	-13.3219
396	-13.3222
vsprintf	-13.3223
▁ansistringxo	-13.3223
▁100022	-13.3226
02040	-13.3227
▁10023	-13.3245
▁env	-13.3252
5560	-13.3256
679	-13.3257
▁qaexpav	-13.3269
hift	-13.3275
▁40928	-13.3277
▁40727	-13.3281
933	-13.3281
▁4682	-13.3289
732	-13.3291
▁1400115	-13.3292
296	-13.3292
603	-13.3293
▁aautoit	-13.3293
▁typematch	-13.3294
▁presults	-13.3294
▁mouse	-13.3298
setwindowtext	-13.33
zeros	-13.3301
▁naav	-13.3304
▁4637	-13.3309
▁createdi	-13.3311
row	-13.3319
▁4576	-13.3321
etlasterro	-13.3324
▁astringis	-13.3328
static	-13.3329
startup	-13.333
▁4614	-13.3339
727	-13.3339
exw	-13.3344
▁2028	-13.3347
▁isaccel	-13.3348
▁hsz	-13.335
▁kgpa	-13.3355
▁4594	-13.3358
▁4329	-13.336
▁41490	-13.3361
location	-13.3366
▁getbuffer	-13.3367
metafile	-13.3368
589	-13.3372
▁maxchar	-13.3373
377	-13.3377
▁1048	-13.3382
prev	-13.3384
▁4453	-13.3389
1160	-13.3392
282	-13.3393
571	-13.3394
▁range	-13.3394
462	-13.3394
vt	-13.3402
453	-13.3412
▁ygxpauh	-13.3414
textextentpoint	-13.3417
287	-13.3422
145	-13.3423
▁freebuf	-13.3424
▁4697	-13.3428
▁userighttoleft	-13.3432
767	-13.3435
▁fput	-13.3437
647	-13.3438
lptemplate	-13.3442
▁4591	-13.3445
literal	-13.3449
▁getundock	-13.3449
631	-13.345
▁172	-13.3455
internalcontext	-13.3456
alunwind	-13.3457
989	-13.3457
▁iaexabv	-13.3461
internet	-13.3462
▁fetch	-13.3462
▁qaexhhhh	-13.3469
901	-13.347
stringsa	-13.3484
506	-13.3489
827	-13.3492
297	-13.3493
7488	-13.3493
▁2004	-13.3497
common	-13.3501
042	-13.3502
▁4343	-13.3509
226	-13.3512
942	-13.3512
022	-13.3514
▁restore	-13.3519
ppl	-13.3521
▁152	-13.3532
▁4554	-13.3534
▁wpb	-13.3534
497	-13.3535
▁4545	-13.3535
ssr	-13.3536
▁iaepa	-13.3537
▁4699	-13.3546
▁qaejk	-13.355
576	-13.355
605	-13.3551
899	-13.3553
▁drawsiz	-13.3559
▁4859	-13.3562
reg	-13.3567
▁2014	-13.3571
▁365	-13.3572
6310	-13.3575
▁copyup	-13.3583
apmode	-13.3583
961	-13.3585
481	-13.3586
▁4352	-13.3596
▁unregister	-13.3597
106	-13.3597
683	-13.3598
755	-13.3598
666	-13.3602
692	-13.3604
cl	-13.3605
486	-13.3605
tthreadlocal	-13.3607
▁docan	-13.3607
▁windowfrom	-13.3608
541	-13.3609
▁aistheme	-13.3609
▁getenv	-13.361
▁aprogram	-13.361
▁fir	-13.361
▁1400218	-13.3612
pad	-13.3613
tspeed	-13.3614
626	-13.3617
kgn	-13.3619
893	-13.362
725	-13.3622
jpaui	-13.3628
996	-13.3634
231	-13.3649
1708	-13.3651
▁1400117	-13.366
▁prev	-13.3672
gettime	-13.3673
▁4415	-13.3673
651	-13.3673
185	-13.3676
965	-13.3676
eevent	-13.3687
gindi	-13.3687
▁amicrosoft	-13.3687
▁vbavartst	-13.3687
▁readfds	-13.3687
▁ttextrec	-13.3687
629	-13.369
dibits	-13.3692
▁riid	-13.37
bts	-13.3718
▁4838	-13.3724
642	-13.3728
edad	-13.3728
595	-13.373
paueh	-13.3731
436	-13.3738
971	-13.374
▁iaexpav	-13.3741
312	-13.3751
972	-13.3756
callwndproc	-13.3757
149	-13.3763
836	-13.3763
672	-13.3766
557	-13.377
▁4519	-13.3773
hevent	-13.3774
oleserver	-13.3774
▁astatic	-13.3779
▁1642	-13.3784
723	-13.3785
▁1004190	-13.3785
▁xto	-13.3788
271	-13.3792
▁bringto	-13.3796
protect	-13.3797
▁iscontrol	-13.38
132	-13.3805
806	-13.3805
▁qea	-13.3807
833	-13.3808
groupsegment	-13.3808
047	-13.3809
viewport	-13.3813
719	-13.3833
432	-13.3835
▁42767	-13.3843
front	-13.3849
▁capav	-13.385
▁sghpauh	-13.3851
▁4795	-13.3853
insert	-13.3857
datatos	-13.3864
▁4711	-13.3864
▁tsql	-13.3864
496	-13.3865
classinfo	-13.3865
▁tcontrolr	-13.3871
161	-13.3872
▁4579	-13.3873
309	-13.3875
▁40453	-13.3881
▁sapa	-13.3885
▁4417	-13.3886
716	-13.3888
6270	-13.3889
▁ygj	-13.3889
▁4645	-13.3895
▁10033	-13.3896
invalid	-13.3897
▁setimage	-13.3904
▁50000000	-13.391
▁4630	-13.3919
275	-13.3922
▁4999	-13.3923
▁4668	-13.3925
915	-13.3926
gdiobj	-13.3929
876	-13.3932
▁1007678	-13.3938
▁4722	-13.3938
▁iaexab	-13.3953
findresourceh	-13.3958
▁44869	-13.396
▁getdef	-13.3962
715	-13.3963
▁flag	-13.3965
353	-13.3969
meraseb	-13.3975
881	-13.3981
999	-13.3981
946	-13.3988
pautag	-13.399
586	-13.3992
▁4526	-13.3993
adh	-13.4
strings	-13.4001
855	-13.4006
▁40103	-13.4008
▁277	-13.401
dl	-13.4013
695	-13.4013
113	-13.4015
572	-13.4017
▁comparestringw	-13.402
modifier	-13.4021
891	-13.4024
991	-13.4025
▁4820	-13.4029
▁ismenu	-13.4031
▁settingchange	-13.4037
ansi	-13.4041
▁stwu	-13.4042
deselect	-13.4044
▁findnext	-13.4046
padipbdi	-13.4064
▁1400112	-13.4065
7143	-13.4074
471	-13.408
lcidfrom	-13.4094
▁mapvirtualkey	-13.4097
▁tddeclient	-13.4097
▁getsel	-13.4098
▁prg	-13.4102
▁stop	-13.4104
301	-13.4105
start	-13.4109
212	-13.4119
159	-13.4121
exstring	-13.4122
mctl	-13.4127
▁cchdat	-13.4129
▁4553	-13.413
▁4530	-13.4132
593	-13.4135
697	-13.4137
▁4355	-13.4138
▁qaepa	-13.4138
ces	-13.4141
▁systemtimeto	-13.4143
▁freea	-13.4143
ghxz	-13.4145
idispatch	-13.4146
▁4718	-13.4148
152	-13.4153
only	-13.4169
▁agetcurrent	-13.4172
▁2000000	-13.4176
collection	-13.4178
766	-13.4179
6456	-13.4185
▁4300	-13.4187
103	-13.4188
246	-13.4192
▁4584	-13.4195
▁peauh	-13.4196
▁4672	-13.4205
▁atcp	-13.4208
982	-13.421
▁41221	-13.4213
nullptr	-13.4216
cresource	-13.4217
643	-13.4218
▁125	-13.4226
▁40239	-13.423
037	-13.4236
▁4612	-13.426
387	-13.426
▁textheight	-13.4261
▁41567	-13.4261
visua	-13.4266
jpaj	-13.4267
791	-13.4271
▁4313	-13.4275
allocator	-13.4275
▁4855	-13.429
du	-13.4291
▁4839	-13.4292
088	-13.4292
▁191	-13.4293
▁ppst	-13.4302
937	-13.4306
▁4750	-13.4318
▁4853	-13.4318
▁40295	-13.4322
▁cfto	-13.4324
357	-13.4332
▁setnb	-13.4332
▁4611	-13.4333
777	-13.4339
849	-13.4339
01489	-13.4347
padaa	-13.435
mnem	-13.4351
ancellationtoken	-13.4352
▁eject	-13.4352
pbr	-13.4353
▁40135	-13.4357
▁getmouse	-13.4359
▁ansic	-13.4366
206	-13.4368
▁aguiset	-13.4369
mfont	-13.4371
unwind	-13.4372
563	-13.4373
705	-13.4375
▁pvargresult	-13.4378
167	-13.438
329	-13.4382
411	-13.4385
277	-13.4406
956	-13.4409
995	-13.4411
▁geti	-13.4412
▁sqltim	-13.4412
▁4834	-13.4413
856	-13.4416
stringlen	-13.4429
▁45666	-13.443
▁afxole	-13.4432
▁4531	-13.4434
▁initfl	-13.4434
errorhandl	-13.4434
eader	-13.4434
▁plbrush	-13.4438
language	-13.4438
▁4927	-13.4438
575	-13.4438
905	-13.4444
mm	-13.4446
▁4414	-13.4448
tvardatai	-13.4451
▁4595	-13.4452
fface	-13.4454
stext	-13.446
531	-13.4476
qual	-13.4482
1694	-13.4482
0019	-13.4488
01330	-13.4491
762	-13.4498
441	-13.4501
pcopy	-13.4504
367	-13.4505
lpfile	-13.4506
btn	-13.451
lbound	-13.4521
936	-13.4523
hotspot	-13.4525
busy	-13.4525
findatom	-13.4525
▁maehi	-13.4526
▁40804	-13.4529
▁validatere	-13.4529
▁4967	-13.4533
457	-13.4533
12010	-13.4539
▁4631	-13.455
979	-13.4553
scheduler	-13.4554
▁crtdownlevell	-13.4555
▁4344	-13.4563
ocalenametolc	-13.457
987	-13.4575
197	-13.4575
172	-13.4577
ar	-13.4583
289	-13.4584
▁lpl	-13.4585
json	-13.4586
▁pow	-13.4586
▁41751	-13.459
▁yaxh	-13.4593
675	-13.4595
ulong	-13.4604
▁357	-13.4605
056	-13.4606
colorchange	-13.461
▁qqrusususus	-13.4612
▁getselected	-13.4613
▁setmenuiteminfo	-13.4614
▁vbavarlatemem	-13.4618
▁xmonitorfrom	-13.4624
866	-13.4624
▁resize	-13.4636
stringw	-13.4637
▁paxpak	-13.4653
361	-13.4654
▁4782	-13.4654
000335	-13.4656
801	-13.466
635	-13.4668
846	-13.4669
537	-13.4672
▁171	-13.4675
▁41175	-13.4682
mdi	-13.4684
307	-13.4688
▁ygkpa	-13.4694
▁paui	-13.4696
▁4737	-13.4697
▁aag	-13.4697
657	-13.4699
▁putwc	-13.4699
▁cmovg	-13.4702
182	-13.4702
▁punpckh	-13.4703
▁getpropinfo	-13.4703
▁4673	-13.4704
bcce	-13.4705
▁coinitialize	-13.471
952	-13.4713
deh	-13.4714
▁qqruiuip	-13.4716
709	-13.4716
552	-13.4717
872	-13.4717
▁aclose	-13.4718
742	-13.472
▁4805	-13.4721
▁4308	-13.4724
▁blob	-13.4725
reduc	-13.4729
607	-13.474
country	-13.474
033	-13.4748
▁setbit	-13.4749
413	-13.475
983	-13.4752
2220	-13.4756
▁4982	-13.4758
▁4514	-13.4762
232	-13.4777
▁qnan	-13.4789
057	-13.479
▁setbevel	-13.479
▁ansilowercase	-13.479
▁fprem	-13.479
strncmp	-13.479
framehandler	-13.4798
mvc	-13.4798
615	-13.4803
enum	-13.4806
ren	-13.4808
▁4947	-13.4815
pretranslate	-13.4816
▁4688	-13.4818
519	-13.4818
▁qaexpau	-13.4824
40000	-13.4831
▁lpthread	-13.4832
cls	-13.4836
▁1400116	-13.4839
ender	-13.4841
507	-13.4844
sptype	-13.4846
▁1645	-13.4846
▁8002	-13.4847
subclassctl	-13.4847
first	-13.4847
▁43995	-13.4851
327	-13.486
053	-13.486
▁merge	-13.4861
▁vbar	-13.4863
322	-13.4863
binding	-13.488
▁tmsdom	-13.488
nmaxfile	-13.488
▁globalrealloc	-13.4881
▁atoi	-13.4886
▁4559	-13.489
▁uninitialize	-13.4896
862	-13.49
▁pm	-13.4903
863	-13.4906
ocalename	-13.4907
▁4604	-13.4908
head	-13.491
by	-13.4913
▁flo	-13.4915
859	-13.4916
▁4427	-13.4919
setenv	-13.4925
▁ano	-13.4926
15180	-13.4928
▁1400033	-13.4929
▁4602	-13.4929
fffffeb	-13.4938
759	-13.4939
▁4498	-13.494
▁encoded	-13.4945
▁getfilesize	-13.4949
bounds	-13.4949
xus	-13.4953
▁qaeaa	-13.4955
382	-13.496
▁floattotext	-13.4971
▁tfloatformati	-13.4974
▁pace	-13.4978
▁4418	-13.4978
▁4589	-13.4984
▁4527	-13.4993
731	-13.4995
misc	-13.4997
▁4578	-13.5
6681	-13.5001
▁100006	-13.5002
▁settime	-13.5006
▁getfilename	-13.5009
062	-13.5011
▁1000000	-13.5013
▁execute	-13.5017
hpaxpau	-13.5019
929	-13.5022
052	-13.5025
▁2024	-13.5025
747	-13.503
117	-13.5031
getwc	-13.5031
▁qaehhh	-13.5032
cedit	-13.5039
session	-13.5043
dwo	-13.5051
▁41030	-13.5053
▁4535	-13.5055
139	-13.5055
483	-13.5058
921	-13.5062
previous	-13.5063
▁charlowerbuff	-13.5063
▁qbexhpa	-13.5064
unicode	-13.5065
pression	-13.5066
tos	-13.5068
▁qaexk	-13.5082
▁positi	-13.5089
customsqldataset	-13.509
157	-13.5091
mapentry	-13.5092
383	-13.5111
▁report	-13.5117
▁qaehpautag	-13.5121
tryst	-13.5124
837	-13.5126
▁4980	-13.5129
▁post	-13.5132
▁41560	-13.5133
▁376	-13.5134
▁4715	-13.5134
gex	-13.5135
▁tmain	-13.5137
977	-13.5144
endoffile	-13.5147
▁41724	-13.515
glyph	-13.5155
most	-13.5155
0001	-13.5156
▁4727	-13.5157
▁1007679	-13.5166
737	-13.5184
rol	-13.5184
757	-13.5198
▁tcustomad	-13.5202
async	-13.5204
▁4938	-13.5206
▁manual	-13.5215
ethandle	-13.5221
072	-13.5226
▁tpopup	-13.5227
http	-13.5232
progress	-13.5238
▁cfile	-13.5238
▁elem	-13.5246
▁200000	-13.525
less	-13.5253
▁setstate	-13.5253
▁394	-13.5258
▁commit	-13.527
▁213	-13.5271
522	-13.5272
▁environment	-13.5274
▁alined	-13.5276
▁215	-13.5282
655	-13.5284
7132	-13.5296
sqrt	-13.5296
539	-13.5302
▁seticons	-13.5312
getpos	-13.5321
▁4719	-13.5323
limit	-13.5326
beh	-13.5329
819	-13.5333
▁4678	-13.5341
▁contains	-13.5343
▁extracticonex	-13.5345
▁tident	-13.5346
▁4725	-13.5347
getuserobject	-13.5348
overflo	-13.5348
▁421452	-13.5353
▁4749	-13.5357
buffersize	-13.5359
consoleoutput	-13.5359
800000	-13.5366
▁4674	-13.5366
onh	-13.5368
365	-13.537
▁46406	-13.537
▁anull	-13.537
▁getfont	-13.5381
▁amessagebox	-13.5383
▁yapeax	-13.5386
597	-13.5391
▁4520	-13.5401
▁4966	-13.5403
▁4662	-13.5416
▁42175	-13.542
▁4643	-13.5421
▁41228	-13.5431
▁40618	-13.5437
917	-13.5437
numberoffree	-13.5438
boolean	-13.5438
▁updatecontrols	-13.5439
trailing	-13.5439
▁initbitmap	-13.5444
▁qaepaxi	-13.5449
▁4712	-13.5454
reading	-13.547
▁4790	-13.5477
609	-13.5481
▁cmovl	-13.5483
mp	-13.5486
769	-13.549
▁4704	-13.5495
516	-13.5499
473	-13.5501
247	-13.5502
702	-13.5503
587	-13.5507
6392	-13.5512
713	-13.5518
▁aguictrl	-13.5518
▁4388	-13.5519
2210	-13.5526
combobox	-13.5528
▁removepr	-13.5529
▁4837	-13.553
▁hwndinsertafter	-13.5535
▁netresource	-13.5535
▁createrectrgn	-13.5535
▁tryencode	-13.5535
privileges	-13.5535
▁setwindoworg	-13.5539
▁chk	-13.5539
121	-13.5541
▁4825	-13.5548
▁41053	-13.5549
▁qaexpavc	-13.5553
521	-13.5574
wst	-13.5581
▁4511	-13.5581
646	-13.559
097	-13.5594
▁40724	-13.5594
▁43611	-13.5608
373	-13.5616
029	-13.562
1000	-13.5622
712	-13.5628
▁nnumberof	-13.563
member	-13.5632
▁getprimary	-13.5632
041	-13.5633
taborder	-13.5643
haav	-13.5645
▁newstate	-13.5649
▁768	-13.565
▁351	-13.5651
▁aaexpav	-13.5652
▁mis	-13.5652
▁setle	-13.5653
875	-13.5653
opa	-13.5657
▁qaexpax	-13.566
219	-13.5661
083	-13.5665
▁20624	-13.5672
zero	-13.5681
▁135	-13.5686
strcats	-13.5689
▁isin	-13.5695
▁276	-13.5699
6834	-13.5701
▁4724	-13.5703
335	-13.5703
303	-13.5703
▁istream	-13.5706
366	-13.5707
monitor	-13.5708
873	-13.5711
▁checkto	-13.5713
523	-13.5715
932	-13.5717
subitem	-13.5723
021	-13.5726
lapse	-13.573
▁chartobyte	-13.573
notsupported	-13.573
stub	-13.5731
▁getdib	-13.5732
ant	-13.5733
749	-13.5734
315	-13.5735
962	-13.5737
452	-13.5744
▁4949	-13.5748
▁4503	-13.575
065	-13.5752
843	-13.5757
▁afxgetfile	-13.5761
bfcc	-13.5763
tate	-13.5766
atan	-13.5774
40388	-13.5783
▁getlength	-13.5788
7444	-13.5789
637	-13.579
▁40877	-13.5795
▁tscrollbar	-13.5797
027	-13.58
546	-13.5801
▁46780	-13.5807
143	-13.5809
es	-13.5811
▁fi	-13.5819
fault	-13.5824
272	-13.5828
533	-13.5829
designsize	-13.5829
▁createdlg	-13.5829
223	-13.5837
tbase	-13.5838
val	-13.5842
186	-13.5842
345	-13.5847
▁ato	-13.5847
▁46042	-13.5849
▁80531	-13.5854
547	-13.5863
▁4950	-13.5863
▁60000	-13.587
▁extract	-13.587
663	-13.5875
721	-13.5877
▁10091	-13.5888
bbbc	-13.5899
781	-13.5908
avcarchive	-13.592
▁4804	-13.592
513	-13.5922
pauh	-13.5923
▁dwfileoffset	-13.5929
▁ioinit	-13.5929
886	-13.593
985	-13.5932
csimple	-13.5932
▁qaehpbd	-13.5932
wmwindowposchang	-13.5933
▁40335	-13.5934
case	-13.5939
bro	-13.594
wmf	-13.5942
sopen	-13.5942
▁internet	-13.5944
▁4706	-13.595
221	-13.595
keys	-13.595
▁140018	-13.595
pav	-13.5952
▁getdateformat	-13.5954
▁open	-13.5956
▁2048	-13.5959
▁lpv	-13.5967
▁4799	-13.597
959	-13.5976
532	-13.5979
▁41619	-13.5989
16936	-13.5989
691	-13.5994
writestring	-13.5999
atestr	-13.6009
8031	-13.6013
ffab	-13.6014
▁4863	-13.6016
▁4736	-13.6025
monthcal	-13.6025
exists	-13.6026
▁4540	-13.6029
conversion	-13.603
arrow	-13.603
▁yghpautag	-13.603
lopn	-13.603
802	-13.603
▁afxwin	-13.6032
▁getms	-13.6037
▁isform	-13.604
▁4773	-13.6043
▁freelibrary	-13.6045
▁hard	-13.6045
▁4334	-13.6046
kexit	-13.6047
▁qbepau	-13.605
▁aruntime	-13.606
895	-13.606
▁4969	-13.6061
chart	-13.6064
▁hrgn	-13.6071
▁40997	-13.6078
▁stb	-13.6083
▁getbuf	-13.6086
pvarg	-13.6091
▁aap	-13.6093
▁iaex	-13.6096
▁41486	-13.6096
579	-13.6103
869	-13.6106
892	-13.6108
501	-13.6114
543	-13.6115
▁4634	-13.6115
8053	-13.6121
205	-13.6127
pixelsperinch	-13.6132
▁initresstring	-13.6132
▁pathfind	-13.6132
initializecrit	-13.6133
▁getconsole	-13.6137
▁connect	-13.6149
errorpr	-13.6168
▁vbafp	-13.6171
596	-13.6184
371	-13.6188
partial	-13.619
611	-13.6193
▁4653	-13.6196
▁settop	-13.6199
▁4675	-13.62
▁100038	-13.6201
▁40311	-13.6209
▁slw	-13.6213
▁4709	-13.6216
▁140079	-13.6219
077	-13.6227
synchronize	-13.6232
label	-13.6235
mpunct	-13.6235
▁vbalatememcall	-13.6235
▁writeconsole	-13.6235
▁utagdb	-13.6239
mmask	-13.6239
▁mi	-13.6242
▁polyline	-13.6249
fffffed	-13.6249
▁10042	-13.625
▁42596	-13.6253
border	-13.6254
▁theme	-13.6258
▁4695	-13.6259
696	-13.6259
sysstring	-13.6261
829	-13.6262
▁go	-13.6263
621	-13.6265
snprint	-13.6275
kk	-13.6279
671	-13.6281
▁hook	-13.6284
lpszurl	-13.6289
967	-13.6298
▁4714	-13.6302
▁40859	-13.6307
▁4723	-13.6309
515	-13.6316
▁366	-13.6321
▁ue	-13.6328
dlgproc	-13.6329
wake	-13.633
drawingstyle	-13.6336
▁applicatio	-13.6339
binherithandle	-13.6339
workarea	-13.6339
▁ppthotspot	-13.6339
drawinfo	-13.6341
▁crtmessagebox	-13.6342
tmonthcalcolor	-13.6343
▁4713	-13.6358
887	-13.6359
▁4507	-13.6369
913	-13.6372
▁registerclass	-13.6379
636	-13.6381
▁4866	-13.6383
▁stretch	-13.6391
▁137	-13.6394
882	-13.64
865	-13.6403
▁45726	-13.6407
clipboardformat	-13.641
▁80485	-13.6411
821	-13.6412
▁10031	-13.6416
▁41135	-13.6421
▁iaexh	-13.6429
▁4770	-13.6431
582	-13.6431
086	-13.6432
solid	-13.6433
▁41317	-13.6442
isolation	-13.6444
directives	-13.6444
assoc	-13.6445
▁getclipbo	-13.6448
▁cthread	-13.6449
▁lpoutput	-13.6449
itow	-13.645
867	-13.6453
871	-13.6457
▁strtol	-13.6462
066	-13.6468
245	-13.6473
uninitialize	-13.6476
manual	-13.6483
5751	-13.6484
▁getnode	-13.6491
▁2002	-13.6498
601	-13.6499
cdll	-13.65
▁4814	-13.6502
082	-13.6507
861	-13.6519
▁4975	-13.6521
▁islin	-13.6523
▁40905	-13.6525
destroye	-13.6528
▁4696	-13.6528
▁40678	-13.6528
517	-13.6533
pow	-13.6548
printers	-13.655
orientation	-13.6551
nfilesize	-13.6551
bling	-13.6553
xmldo	-13.6559
vent	-13.6563
▁40209	-13.6563
386	-13.6568
ascii	-13.6573
▁ka	-13.6577
▁callset	-13.6582
xctrl	-13.6582
▁aaepa	-13.6597
positions	-13.6598
▁167	-13.6598
632	-13.6606
▁volume	-13.6606
▁42580	-13.6607
ector	-13.663
▁isrect	-13.6632
▁yapau	-13.6634
807	-13.6638
1630	-13.6638
▁lpdirectory	-13.6641
559	-13.6648
▁41310	-13.665
sper	-13.6654
sector	-13.6656
unhandled	-13.6658
▁redraw	-13.6659
backgr	-13.6659
853	-13.6666
stat	-13.6667
getfiletitle	-13.6671
▁40825	-13.6675
▁pak	-13.6679
▁aopen	-13.668
▁140011	-13.6681
▁4812	-13.6687
clipboardformata	-13.6694
6280	-13.6696
▁41787	-13.6699
▁ascii	-13.6703
▁qaexhh	-13.6705
▁16405	-13.6707
▁qbehaa	-13.6725
longpath	-13.6725
modifystyle	-13.6728
hash	-13.6739
▁4513	-13.6743
599	-13.6744
505	-13.6749
▁exceptionptr	-13.675
tooltip	-13.6752
▁4717	-13.6752
832	-13.6761
▁1100	-13.6764
▁tbevel	-13.6767
curr	-13.6767
cut	-13.6768
▁4742	-13.6781
find	-13.6781
▁vartoint	-13.6786
▁4849	-13.6795
▁363	-13.6807
079	-13.681
▁4575	-13.6811
845	-13.6822
▁4897	-13.6826
▁yapb	-13.6827
▁40843	-13.6832
typea	-13.6833
parse	-13.6834
613	-13.6841
▁140015	-13.6841
923	-13.6845
786	-13.6847
207	-13.6849
▁40496	-13.6856
▁acquire	-13.6856
▁yaxpavc	-13.6867
▁40134	-13.687
widestr	-13.6877
setargv	-13.6877
▁mcisendcommand	-13.6877
▁amsctls	-13.6877
▁umsthread	-13.6877
▁ntab	-13.688
wow	-13.6882
▁46615	-13.6882
241	-13.6884
▁qqriip	-13.6891
▁cfixedalloc	-13.6894
▁getkeyboard	-13.69
026	-13.6911
sort	-13.6913
▁rcl	-13.6916
▁qqrpvp	-13.6919
▁41224	-13.692
5470	-13.6924
▁42570	-13.6925
▁dir	-13.693
vsnprint	-13.6931
616	-13.6935
▁628	-13.6936
623	-13.6952
fill	-13.6961
073	-13.6964
193	-13.6968
▁vbafpi	-13.6971
095	-13.6979
before	-13.6984
abutag	-13.6985
▁10670	-13.6986
actuals	-13.6988
himetric	-13.6988
ftst	-13.6988
defaultlocale	-13.6988
cale	-13.6989
20644	-13.699
▁decodedate	-13.6991
infoa	-13.6992
▁isdialog	-13.6996
▁1058	-13.7001
▁tparameter	-13.7001
sak	-13.7005
tclipboard	-13.701
▁mbsc	-13.702
wd	-13.702
▁cinit	-13.7033
▁4762	-13.7039
▁clipb	-13.7043
malloc	-13.7045
track	-13.7045
▁42174	-13.7048
101	-13.7053
▁duplicate	-13.7054
▁40945	-13.706
safe	-13.7063
▁40986	-13.7067
▁231	-13.7071
▁selectclip	-13.7072
bmi	-13.7077
773	-13.7079
▁4761	-13.7082
▁regopenkey	-13.7085
off	-13.7093
945	-13.7098
▁1036	-13.7099
rcwork	-13.71
1388	-13.7116
▁10040	-13.7118
02916	-13.712
11010	-13.7125
076	-13.7127
▁41937	-13.7128
▁41137	-13.7136
my	-13.7139
▁4946	-13.7146
906	-13.7147
▁46582	-13.7152
847	-13.7152
paipau	-13.7173
▁758	-13.7178
349	-13.7178
735	-13.7179
785	-13.7189
▁hide	-13.7193
addr	-13.7198
▁4686	-13.7201
▁setborder	-13.7212
bdh	-13.7213
ilockbytes	-13.7214
tabcontrol	-13.7214
▁aux	-13.7215
▁dllmain	-13.7216
▁isdialogmessage	-13.7216
▁autf	-13.7218
4000	-13.7219
schild	-13.722
▁40151	-13.7221
▁760	-13.7223
341	-13.7225
▁updatesys	-13.7226
▁425600	-13.7229
xam	-13.7231
▁4734	-13.7235
tryblock	-13.7252
▁209	-13.7254
▁44633	-13.7254
▁bs	-13.7258
▁pai	-13.7267
▁42001	-13.7271
log	-13.7272
▁acom	-13.7276
031	-13.728
▁176	-13.7285
▁1028	-13.7289
326	-13.7289
▁40147	-13.7295
911	-13.7297
▁findwindow	-13.7305
pavcfile	-13.7311
▁40660	-13.7312
tokeninformation	-13.7317
onic	-13.7321
▁afxpre	-13.7324
hfindfile	-13.7329
mark	-13.7329
▁getclasslong	-13.7329
▁mktime	-13.7329
foreign	-13.7329
▁twmno	-13.733
▁dpto	-13.7335
▁pu	-13.7339
▁getbitmap	-13.7358
787	-13.736
529	-13.7365
▁qbepa	-13.7372
889	-13.7373
▁fast	-13.7385
▁setenv	-13.7391
ul	-13.7395
▁inet	-13.74
173	-13.7401
▁checkin	-13.7403
6967	-13.7411
▁cole	-13.7413
▁1020	-13.7413
dlggroup	-13.7416
mbstowcs	-13.7417
▁140016	-13.7421
▁virtualprotect	-13.7423
583	-13.7423
anss	-13.743
caec	-13.7432
▁4744	-13.7433
▁wmem	-13.7434
▁qqrpcpx	-13.7436
▁getfileversion	-13.7442
▁45654	-13.7444
▁finish	-13.7444
▁cmmouse	-13.7445
ency	-13.7445
languages	-13.7451
649	-13.7471
▁4813	-13.7473
▁yapauh	-13.7474
▁ppsi	-13.7476
617	-13.748
2260	-13.7484
▁tform	-13.7489
lpse	-13.7495
▁4752	-13.7501
2110	-13.7501
▁tcm	-13.7502
▁8001	-13.7503
▁ygxaav	-13.7503
addd	-13.7504
003	-13.7523
▁4651	-13.7524
032	-13.7524
processor	-13.754
▁754	-13.7545
alpha	-13.7552
▁idcookie	-13.7555
numpunct	-13.7556
▁41149	-13.7557
lwi	-13.7558
erif	-13.7563
▁qqrususus	-13.7563
priority	-13.7563
▁getviewportext	-13.7564
▁amss	-13.7565
▁lastaccesstime	-13.7566
059	-13.7567
oserror	-13.7567
▁4959	-13.7569
▁4996	-13.757
▁tweb	-13.7572
▁tdde	-13.7575
benable	-13.7578
nddrag	-13.758
sql	-13.7594
▁timeout	-13.7594
▁41867	-13.7594
445	-13.7605
▁40246	-13.7616
216	-13.7623
username	-13.7628
scoped	-13.7635
283	-13.7635
▁aprocess	-13.7636
▁4685	-13.7646
▁4661	-13.7648
eight	-13.7653
071	-13.7658
▁40554	-13.7661
bfac	-13.7661
datatype	-13.7664
requ	-13.7675
▁4936	-13.7677
▁41520	-13.7682
ware	-13.7682
▁140002	-13.7684
modulefilename	-13.7691
▁shget	-13.7692
▁41126	-13.7693
131	-13.77
▁356	-13.7702
scrollpos	-13.7706
construct	-13.7708
▁insertmenu	-13.7709
▁updatetext	-13.7717
▁1004472	-13.7721
13380	-13.7729
▁createwindow	-13.7737
▁sgh	-13.7745
face	-13.775
▁cvts	-13.7755
olecontrolsite	-13.7758
▁ball	-13.7759
▁qqrpvuip	-13.7765
▁apt	-13.7767
▁40963	-13.7769
▁audp	-13.7769
▁404024	-13.777
46400	-13.7774
▁4768	-13.7775
▁4945	-13.7777
▁4731	-13.7781
▁1102	-13.7782
▁yae	-13.7783
133	-13.7787
857	-13.7797
col	-13.78
▁setgraphic	-13.7801
region	-13.7803
▁1260	-13.7803
▁4600	-13.7804
11200	-13.7806
▁getm	-13.781
703	-13.7811
▁setdefault	-13.7816
▁yaxpad	-13.7826
▁getmon	-13.7828
▁4702	-13.784
▁yahp	-13.7842
▁4710	-13.7848
302	-13.785
▁578	-13.7851
701	-13.7866
cbh	-13.787
▁qqrir	-13.7877
▁createpen	-13.7878
▁4733	-13.7881
▁44530	-13.7888
▁44411	-13.7895
▁1030	-13.7905
063	-13.791
▁44942	-13.7914
▁adisplay	-13.792
▁390	-13.7924
▁znkst	-13.7924
extension	-13.7924
▁bre	-13.7927
1450	-13.7928
▁ec	-13.7929
▁setas	-13.7934
cstatusbar	-13.7935
wmwindowpos	-13.7939
us	-13.794
▁aaexpbd	-13.794
▁40159	-13.7942
019	-13.7942
▁aget	-13.7943
142	-13.7948
sqltimestamp	-13.795
▁yaiqa	-13.7951
▁40467	-13.7958
▁yahpb	-13.7962
091	-13.7962
▁41464	-13.7966
mb	-13.7972
▁46794	-13.7978
585	-13.798
▁setitem	-13.7981
▁updatet	-13.7988
089	-13.799
▁41154	-13.7993
▁338	-13.8003
▁4842	-13.8005
951	-13.8006
▁getcolumn	-13.8018
▁wrap	-13.8028
columns	-13.8036
▁40322	-13.8043
queue	-13.8044
webcomp	-13.8048
▁oninit	-13.8048
▁meth	-13.8049
getdiskfreespace	-13.8049
rows	-13.805
▁textout	-13.8051
textwith	-13.8051
▁assignto	-13.8053
2154	-13.8062
▁40150	-13.8063
▁4683	-13.807
▁cont	-13.8075
▁qqriiii	-13.8087
▁49687	-13.8089
▁aselect	-13.809
▁strto	-13.8097
▁4826	-13.8105
▁host	-13.8119
pbdhh	-13.812
▁4728	-13.8124
fdfc	-13.8128
▁tcanvasr	-13.813
loadlibrary	-13.8135
▁4625	-13.8135
▁idcoder	-13.8142
coord	-13.8146
201	-13.8153
▁1050	-13.8154
exa	-13.8156
▁41156	-13.8156
psr	-13.8163
getprocesswind	-13.8173
▁trandisp	-13.8173
▁140040	-13.8173
▁hash	-13.8173
paepbu	-13.8173
▁pbmi	-13.8174
▁41125	-13.8175
▁10115	-13.8175
▁tbutton	-13.8197
01681	-13.8198
trolsitefactory	-13.8198
▁374	-13.8199
903	-13.82
strflt	-13.8207
rcl	-13.8209
exe	-13.8216
▁4716	-13.8219
ipi	-13.822
▁astd	-13.8228
087	-13.8234
bl	-13.8245
countryenumproc	-13.8246
▁rtl	-13.8247
▁4787	-13.8247
▁1651	-13.8248
▁recreate	-13.8253
crect	-13.8256
▁40234	-13.8259
argument	-13.8271
▁strstr	-13.8277
sto	-13.8284
▁lpb	-13.8294
▁ppm	-13.8295
policy	-13.8298
unrealizedchore	-13.8299
openclipboard	-13.83
▁insertmenuitem	-13.8301
▁4751	-13.8301
▁4669	-13.8302
▁14000358	-13.8305
▁setime	-13.8305
▁tdatetimer	-13.8309
comp	-13.8313
textheight	-13.8316
enumdisplaymon	-13.8319
lex	-13.8321
375	-13.8321
▁43897	-13.8322
▁4836	-13.8325
character	-13.8326
▁nnumber	-13.8328
▁42109	-13.8329
▁registry	-13.8336
▁4958	-13.8337
▁qeba	-13.8339
▁42705	-13.8342
003082	-13.8342
▁40862	-13.8358
896	-13.8359
▁rd	-13.8367
setuser	-13.8367
faad	-13.8369
▁4763	-13.837
▁pwsz	-13.837
me	-13.8375
sig	-13.8377
▁40441	-13.838
▁4729	-13.8381
▁amsh	-13.8383
▁true	-13.8388
▁100352	-13.839
▁jump	-13.8396
pro	-13.8396
281	-13.8397
palentr	-13.8402
task	-13.8402
▁assd	-13.8412
requested	-13.8414
▁abw	-13.842
keydown	-13.8423
▁41857	-13.8426
abstract	-13.8427
▁afxformatstring	-13.8427
ofna	-13.8427
shortpath	-13.8428
▁atrayset	-13.8428
▁dwauthn	-13.8428
hpbdi	-13.8428
▁vbaobj	-13.843
animate	-13.8439
▁4879	-13.8441
gnin	-13.8443
▁48994	-13.8444
▁41187	-13.8451
▁fail	-13.8466
▁42178	-13.8472
▁mtx	-13.8473
esection	-13.8492
▁186	-13.8503
2024	-13.8505
▁1400151	-13.8511
txt	-13.8516
092	-13.8521
▁40537	-13.8522
▁findp	-13.8523
▁qaexhhhhk	-13.8528
▁4928	-13.8529
▁4990	-13.8539
kkk	-13.8546
▁40160	-13.855
▁4895	-13.8551
▁setclasslong	-13.8557
▁areg	-13.8558
book	-13.8567
▁islea	-13.8571
ffbe	-13.8575
gt	-13.8576
551	-13.8581
dibsection	-13.8585
▁4735	-13.8587
▁4650	-13.8592
▁4978	-13.8592
statet	-13.8592
▁40535	-13.8598
nddlgitemmessage	-13.8608
▁pvt	-13.861
▁peav	-13.8625
▁coledatetime	-13.8631
▁10044	-13.8645
▁sahpb	-13.8649
▁saxp	-13.8656
782	-13.8657
charto	-13.866
717	-13.8668
▁qbepbd	-13.8671
▁pbdpa	-13.8681
▁1003202	-13.8685
break	-13.8689
▁dialogboxparam	-13.8689
▁scrollwindow	-13.8689
▁1111	-13.8692
▁aexpand	-13.8694
046	-13.8697
▁1468	-13.8697
▁8007000	-13.871
components	-13.8713
▁41083	-13.8713
▁4665	-13.8721
controlf	-13.8721
cmem	-13.8724
▁createre	-13.8729
▁getvolume	-13.8731
gconnect	-13.8732
▁41102	-13.8733
▁166	-13.8733
▁40264	-13.8733
tmethod	-13.8734
setclipboard	-13.8735
▁269	-13.8736
▁41509	-13.8739
drive	-13.8748
pmax	-13.8753
mapping	-13.8754
▁4871	-13.8756
stringhandle	-13.8761
▁4995	-13.8762
01900	-13.8764
facete	-13.8772
▁100128	-13.8781
067	-13.8787
pbuffer	-13.8789
▁4726	-13.8798
▁4703	-13.8814
912	-13.8816
6543	-13.8816
colecontrol	-13.8821
▁tcoolba	-13.8822
▁verqueryvalue	-13.8822
radiobutton	-13.8822
▁createdirectory	-13.8822
schedulingring	-13.8825
▁saipap	-13.8826
▁getselection	-13.8828
habv	-13.8828
▁ygpa	-13.8829
▁acor	-13.8834
deletevalue	-13.8841
▁iob	-13.8852
▁1400173	-13.8856
usb	-13.8857
tobe	-13.8863
pbi	-13.8871
wid	-13.888
093	-13.8882
xun	-13.889
592	-13.8903
nj	-13.8906
▁159	-13.891
▁4857	-13.8912
trange	-13.8916
7460	-13.8919
▁asend	-13.8932
outer	-13.8938
filew	-13.8948
612	-13.895
immsetcomposit	-13.8957
ntifierauthority	-13.8957
underline	-13.8957
▁idtcp	-13.8957
xjggpaxpbe	-13.8957
vctool	-13.8958
winini	-13.8962
▁getfirst	-13.8962
pide	-13.8962
▁4700	-13.8967
bt	-13.8973
▁40747	-13.8978
gray	-13.898
lementat	-13.8983
▁4666	-13.8987
▁41360	-13.9003
▁tcolort	-13.9005
▁42078	-13.9007
▁41375	-13.9019
▁widestringt	-13.9028
▁readdata	-13.9033
▁41535	-13.9034
pl	-13.9034
▁iaexi	-13.9035
tow	-13.9037
▁ygi	-13.9039
▁setname	-13.9042
enumvalue	-13.9047
▁1400407	-13.9049
▁4874	-13.9052
081	-13.9055
atlstring	-13.9074
▁40570	-13.9084
encode	-13.909
▁44114	-13.9091
meter	-13.9094
yyyy	-13.9094
elsper	-13.9094
kgk	-13.9094
unlink	-13.9095
biclr	-13.9095
mswheel	-13.9096
▁clsidfrom	-13.9097
rd	-13.9099
▁findand	-13.9099
▁dragqueryfile	-13.9099
nle	-13.91
packaged	-13.9108
not	-13.9108
▁1003200	-13.9109
▁100131	-13.9121
▁aaexi	-13.9127
lnew	-13.9134
▁wcx	-13.914
▁tabs	-13.9144
▁46085	-13.9147
▁48912	-13.9148
uml	-13.9151
▁41377	-13.9166
▁qebapeav	-13.9167
cute	-13.9176
▁44788	-13.9179
▁setauto	-13.9182
tlib	-13.9185
▁getdrop	-13.9185
jn	-13.919
shutdown	-13.919
textextent	-13.9194
▁4780	-13.9216
▁aconfig	-13.9217
▁221	-13.9218
069	-13.9219
▁qaexpb	-13.923
▁aesenc	-13.9233
▁picce	-13.9233
▁false	-13.9233
strcmpi	-13.9234
▁unblock	-13.9234
setdesign	-13.9234
▁setsel	-13.9234
▁doaction	-13.9234
▁afxfindnext	-13.9234
settings	-13.9234
minu	-13.9235
▁41027	-13.9237
▁40663	-13.9239
hbmp	-13.9252
▁tmetaclassrx	-13.9254
▁40522	-13.9256
▁42281	-13.9258
▁42095	-13.9259
▁ak	-13.9271
aepauiexecution	-13.9275
terminate	-13.9285
2140	-13.9286
▁fn	-13.929
pack	-13.929
box	-13.9299
▁40970	-13.9304
▁41049	-13.9305
▁afxis	-13.9311
cccccccc	-13.9314
▁cmpw	-13.9315
▁45673	-13.9315
27999	-13.9316
▁getac	-13.9318
016	-13.9332
▁wmlbutton	-13.9333
an	-13.9346
▁getbase	-13.9347
cinternet	-13.9352
▁44422	-13.9353
▁tpersistentp	-13.9362
6404	-13.9362
▁4833	-13.9366
3359	-13.9371
cscroll	-13.9371
▁xmldo	-13.9372
fixup	-13.9374
▁aimmgetcon	-13.9374
▁aimm	-13.9375
▁createfloating	-13.9375
short	-13.9377
ocksize	-13.9379
▁4730	-13.9381
▁40166	-13.9382
▁41069	-13.9391
▁1400601	-13.9394
lcmapstring	-13.9395
▁100332	-13.9404
toint	-13.9406
rar	-13.9409
▁prc	-13.9409
▁44331	-13.9412
▁setstr	-13.9428
gettextextent	-13.9433
▁41615	-13.9442
fffffce	-13.9445
▁sqrt	-13.9448
▁4769	-13.9448
neg	-13.9453
▁refresh	-13.9454
decode	-13.9464
pages	-13.9466
075	-13.9467
▁41136	-13.9487
seek	-13.9488
▁41267	-13.9502
▁loadlibrary	-13.9503
binary	-13.9516
▁shfileoperation	-13.9517
▁aimmset	-13.9517
▁nkpautagdb	-13.9518
▁pcb	-13.9518
mergemenu	-13.9521
▁getnodefromi	-13.9522
signed	-13.9523
▁44821	-13.953
strfrompwchar	-13.9536
▁tobjectpv	-13.9537
scrollb	-13.9543
▁4781	-13.9544
nk	-13.9555
▁ensure	-13.9559
▁40226	-13.9564
▁ischaralpha	-13.9569
▁40169	-13.9576
cmpeq	-13.9582
▁yaipa	-13.959
pformat	-13.9593
▁4760	-13.9596
recordset	-13.9601
rscan	-13.9606
register	-13.9608
toutf	-13.961
▁140087	-13.961
▁setstring	-13.9616
kpautagdb	-13.9621
▁isempty	-13.9622
▁40863	-13.9634
pbdi	-13.9641
▁367	-13.966
▁aexception	-13.966
borla	-13.9662
rtomb	-13.9662
shortcuttext	-13.9667
▁pxc	-13.9667
datalink	-13.9667
asstr	-13.9669
▁sa	-13.9669
callback	-13.9671
▁asettings	-13.9673
▁42607	-13.9678
▁tcheck	-13.9693
olectrl	-13.9695
▁41316	-13.9702
▁140046	-13.9702
▁40261	-13.9708
▁cbu	-13.971
▁unget	-13.9715
▁103468	-13.9724
pu	-13.9724
etpixel	-13.9725
▁4738	-13.9728
characters	-13.974
▁4759	-13.9752
▁46088	-13.9753
▁40358	-13.9755
▁41141	-13.9757
xixi	-13.9764
▁4847	-13.9766
▁780	-13.9781
descriptor	-13.9784
▁se	-13.9794
▁49990	-13.9801
842	-13.9801
fileread	-13.9807
▁phnew	-13.9809
lineno	-13.981
▁4701	-13.9811
▁setdib	-13.9811
6505	-13.9815
nsave	-13.9819
503	-13.9824
▁4776	-13.9825
icst	-13.9829
rune	-13.9834
hostname	-13.9837
▁nlength	-13.984
549	-13.9848
▁yax	-13.9854
▁46090	-13.9862
▁41087	-13.9863
▁45677	-13.9868
io	-13.9869
▁calcd	-13.987
▁42011	-13.9879
▁1074	-13.9883
000012	-13.9883
▁44532	-13.9884
pbui	-13.9889
▁369	-13.9894
windowtextlength	-13.9896
▁4818	-13.9896
proca	-13.9902
▁tlistcolumn	-13.9908
▁chang	-13.9911
▁hobj	-13.9918
622	-13.993
other	-13.9939
▁40605	-13.994
xm	-13.9942
ll	-13.9946
initial	-13.9953
startupinfo	-13.9957
▁avarbstrfrom	-13.9957
wsetlocale	-13.9958
▁yakpau	-13.9958
▁aiosbase	-13.9958
▁paxpau	-13.9958
nbar	-13.9966
eventsink	-13.9969
▁bytetochar	-13.9972
▁appendmenu	-13.9975
haah	-13.9975
kpak	-13.9982
▁40304	-13.9986
▁196	-13.9987
punk	-13.999
▁findv	-13.9993
kabu	-13.9995
▁41078	-13.9997
▁lpdate	-13.9998
cthreadlocal	-14.0009
▁43060	-14.001
▁1000668	-14.001
local	-14.0012
▁42790	-14.0025
▁4832	-14.0029
▁yghpb	-14.0029
lwindow	-14.0029
7440	-14.0039
0746	-14.0041
▁4758	-14.0041
twindow	-14.0048
age	-14.0052
▁setsort	-14.0053
209	-14.0071
fontsize	-14.0071
553	-14.0075
▁4869	-14.0083
▁41562	-14.0087
512	-14.009
▁load	-14.009
▁778	-14.0093
▁adark	-14.0097
themedata	-14.0099
actctxw	-14.0109
hexadecimal	-14.011
behavio	-14.011
▁aauunpackblock	-14.011
▁unpwrite	-14.011
continuati	-14.011
▁verify	-14.0111
▁afxfullpath	-14.0112
ordered	-14.0113
▁needs	-14.0114
▁40479	-14.0116
autosize	-14.0117
gpbutag	-14.0122
asdss	-14.0122
ind	-14.0129
▁qbehpb	-14.0136
▁4764	-14.0144
getmem	-14.0148
▁41658	-14.0151
4200	-14.0153
4228	-14.0154
ftype	-14.0156
▁312	-14.0164
▁4671	-14.0165
▁4848	-14.0171
▁atray	-14.0174
ok	-14.0181
rtm	-14.0184
library	-14.0187
▁5024	-14.0188
inder	-14.0192
▁41119	-14.0202
device	-14.0204
▁updateitem	-14.0207
▁5555555	-14.0211
rem	-14.0215
176	-14.0225
papaxpax	-14.0229
fstrike	-14.023
045	-14.0232
▁41895	-14.0235
▁4692	-14.0237
▁4997	-14.0239
▁927	-14.024
padhh	-14.0253
dir	-14.0254
▁140017	-14.0256
▁47971	-14.0257
▁4981	-14.026
▁coget	-14.0261
activation	-14.0264
derivedfrom	-14.0264
▁amouseclick	-14.0264
matching	-14.0264
stddisp	-14.0264
▁profileinfo	-14.0264
▁packss	-14.0264
▁pserverinfo	-14.0264
▁amissing	-14.0264
▁40347	-14.0265
▁aregexp	-14.0265
pauth	-14.0267
systemerror	-14.0271
sectionw	-14.0276
return	-14.0278
▁47578	-14.0283
▁48874	-14.0285
▁getmonitorinfoa	-14.0287
▁40148	-14.0287
▁46416	-14.0288
▁42564	-14.0296
utag	-14.0296
sysfon	-14.0298
kpapaui	-14.0299
bdbd	-14.0299
pfrom	-14.0303
▁adriveget	-14.0304
connect	-14.0313
▁40265	-14.0316
6444	-14.0318
852	-14.0322
▁40692	-14.0332
3030	-14.0348
▁icmp	-14.0352
▁getconsolec	-14.0366
playme	-14.0371
055	-14.0371
▁gray	-14.0375
▁yaxpb	-14.0377
▁42154	-14.0382
▁aall	-14.0385
▁4930	-14.0386
▁4977	-14.039
▁regenumkey	-14.0391
811	-14.0397
▁40227	-14.0398
▁46068	-14.0401
▁aapau	-14.0416
build	-14.0417
accel	-14.0419
snap	-14.042
▁yghpadpbd	-14.042
tcontained	-14.042
▁40399	-14.042
ignorefontprope	-14.042
▁globalunwind	-14.042
▁ygpautag	-14.0421
▁cvtts	-14.0421
2074	-14.0421
onwnd	-14.0433
▁atooltip	-14.0436
managed	-14.0438
▁41858	-14.0456
▁yy	-14.0457
▁42758	-14.0459
▁1053	-14.0469
▁lptime	-14.0485
▁175	-14.0487
tclass	-14.0488
hij	-14.0494
▁18000	-14.0495
▁paddus	-14.051
▁40186	-14.0522
▁cdock	-14.0522
cpen	-14.0523
▁1128	-14.0523
▁41649	-14.0527
▁42248	-14.0533
▁4887	-14.0536
showwindow	-14.0542
▁modify	-14.0551
▁4755	-14.0554
▁41778	-14.0564
▁qaehpau	-14.0564
▁9000	-14.0564
1648	-14.0564
▁20450	-14.0567
▁41480	-14.0572
su	-14.0573
metric	-14.0575
xmlnode	-14.0576
double	-14.0577
radio	-14.0578
▁vbacastobj	-14.0579
lowercase	-14.0579
▁4748	-14.0579
namedpipe	-14.058
▁40599	-14.0591
pszclass	-14.0592
▁1400188	-14.0597
000004	-14.0598
xmm	-14.0603
▁getalign	-14.0605
▁40943	-14.061
▁invokehelper	-14.0617
▁43772	-14.0618
boo	-14.0619
▁cob	-14.0624
▁40378	-14.0625
542	-14.0629
idle	-14.0646
▁poly	-14.0648
tdate	-14.065
▁49761	-14.0651
getuserdefault	-14.066
▁43739	-14.0668
display	-14.0668
▁43276	-14.067
417	-14.0674
ffffffffffffff	-14.0678
▁combine	-14.0691
6389	-14.0699
flow	-14.07
▁ashell	-14.071
▁4898	-14.0715
▁45716	-14.0717
061	-14.0721
▁40391	-14.0726
▁41544	-14.0734
46170	-14.0739
▁regdeletekey	-14.074
▁aenablethem	-14.074
shot	-14.074
alignmen	-14.074
▁agetthemeint	-14.0741
tten	-14.0742
cases	-14.0747
freq	-14.0747
▁46040	-14.0749
▁40710	-14.0749
▁amouse	-14.075
▁agetthemetext	-14.075
▁getdlgitemtext	-14.0755
▁309	-14.0755
parentcolor	-14.0761
▁avari	-14.0767
ffae	-14.0768
tables	-14.077
▁41890	-14.0773
profileint	-14.0775
note	-14.0778
▁48294	-14.0786
▁unique	-14.0787
▁qbeab	-14.0787
▁4865	-14.079
▁40389	-14.0792
▁41233	-14.0793
▁41320	-14.0797
▁reply	-14.0798
5529	-14.0809
▁41471	-14.0811
▁140075	-14.0824
▁140021	-14.0825
▁4810	-14.083
▁wcsto	-14.0834
toolbar	-14.0834
▁46710	-14.0836
▁4789	-14.0846
▁47946	-14.0853
▁40197	-14.0865
specifie	-14.0867
domnode	-14.0869
885	-14.0871
▁4861	-14.0872
▁40109	-14.0878
▁41318	-14.0884
▁40680	-14.0888
▁46061	-14.0893
shl	-14.0899
decimal	-14.0903
ftcreationtime	-14.0904
ftlastaccesstime	-14.0904
▁140010	-14.0904
constraints	-14.0905
▁colecontrol	-14.0906
padh	-14.0906
tople	-14.091
▁43612	-14.0911
▁io	-14.0913
▁40354	-14.0913
oc	-14.0916
099	-14.0922
171	-14.0932
▁40521	-14.0932
▁40783	-14.0938
▁qaexhpb	-14.0945
▁40887	-14.0949
▁41730	-14.095
▁41834	-14.0962
▁41596	-14.0965
▁content	-14.0975
▁45644	-14.098
▁4741	-14.0982
▁yapa	-14.0988
43620	-14.0994
▁41545	-14.0995
ffbf	-14.1004
ms	-14.1006
▁40530	-14.1009
▁40231	-14.1015
affinity	-14.102
▁40140	-14.102
7490	-14.1028
▁4694	-14.1029
▁49989	-14.103
▁4785	-14.1042
▁4802	-14.1045
42203	-14.105
▁362	-14.1051
▁avarr	-14.1056
▁aoct	-14.1064
▁41090	-14.1066
lst	-14.1067
fns	-14.107
▁41197	-14.107
iszoomed	-14.107
major	-14.107
▁preparefor	-14.1071
onerror	-14.1071
▁41270	-14.1071
▁preview	-14.1071
▁dis	-14.1072
▁notifyicon	-14.1072
hpautag	-14.1072
▁40874	-14.1073
menua	-14.1075
▁crtis	-14.1075
nternetsetoption	-14.1076
▁allsh	-14.108
▁setopen	-14.1085
▁40425	-14.1087
po	-14.1087
dfde	-14.1088
▁getdocument	-14.1089
▁qeaax	-14.1103
▁adefault	-14.1104
▁40106	-14.1112
▁40352	-14.1113
40658	-14.1121
▁100103	-14.1123
▁2063	-14.1125
basic	-14.1142
▁600	-14.1144
▁dload	-14.1146
▁41534	-14.1148
indnested	-14.1157
▁sahpau	-14.1158
▁40288	-14.1163
▁42015	-14.1166
6250	-14.1181
▁resume	-14.1183
controlsite	-14.1185
setfocus	-14.1188
▁4740	-14.1192
▁4774	-14.1196
6441	-14.1199
▁45711	-14.1205
▁41529	-14.1209
▁41208	-14.1216
▁ori	-14.1218
317	-14.1219
04730	-14.1224
▁adll	-14.1226
iid	-14.123
▁4786	-14.1233
under	-14.1235
persist	-14.124
modified	-14.124
▁afxctx	-14.124
doctemplate	-14.124
dispatcher	-14.124
▁qqrxi	-14.1241
▁qaexpbutag	-14.1241
▁44615	-14.1241
ppm	-14.1243
▁pbdabv	-14.1243
▁40144	-14.1246
▁42985	-14.1249
ipavcfile	-14.125
▁40504	-14.1251
cmdl	-14.1254
▁40189	-14.1258
▁271	-14.1267
▁inval	-14.1268
▁40818	-14.1276
▁46584	-14.1277
▁41843	-14.1279
▁100127	-14.1282
roman	-14.1292
▁devicei	-14.1299
▁qaexii	-14.1303
6288	-14.1304
▁1400568	-14.131
▁acreatethread	-14.1315
▁140019	-14.1315
1400	-14.132
4010	-14.1321
4907	-14.1322
▁40336	-14.1326
▁42424	-14.1327
can	-14.1334
▁setviewport	-14.1336
▁4757	-14.1342
▁45617	-14.1353
▁4747	-14.1356
▁4856	-14.1357
print	-14.136
▁41414	-14.1362
▁45675	-14.1367
▁40574	-14.1374
alo	-14.1376
pbqbd	-14.1386
cs	-14.1391
▁40146	-14.1392
▁41071	-14.1393
comboex	-14.1394
▁1200	-14.1403
▁ao	-14.1408
▁wf	-14.141
▁yapadpbdpad	-14.1412
single	-14.1412
tagtvitema	-14.1412
▁afxcompare	-14.1413
▁safearraycreate	-14.1413
▁vbau	-14.1415
hread	-14.1417
▁getscroll	-14.1417
▁46703	-14.1419
intl	-14.1421
tdatetime	-14.1423
tochar	-14.1424
ockobject	-14.1426
▁qeaapeavc	-14.1428
▁tidsock	-14.1438
▁43716	-14.1439
▁1410	-14.1443
tlocinfo	-14.1443
▁42190	-14.1447
defs	-14.1451
▁45704	-14.1451
▁44210	-14.1461
▁getdisplay	-14.1461
unca	-14.1462
▁41579	-14.1465
setinterface	-14.1471
▁40421	-14.1476
deleteobject	-14.1478
▁41543	-14.1478
isidle	-14.1478
▁928	-14.1488
▁4819	-14.1488
▁stringfrom	-14.1489
hwrite	-14.149
▁41063	-14.1495
colors	-14.1496
ndwait	-14.1497
▁42145	-14.1498
▁40882	-14.1504
3310	-14.1515
request	-14.1519
▁wpbu	-14.1524
actn	-14.1524
▁ntoh	-14.1528
▁4858	-14.1529
displayname	-14.1533
▁40959	-14.1537
▁40359	-14.154
▁259	-14.1551
▁shell	-14.1558
▁qqriu	-14.1558
▁44004	-14.156
5748	-14.1561
7428	-14.1561
▁4884	-14.1563
▁1400155	-14.1565
▁48970	-14.1567
▁40849	-14.1574
drop	-14.1582
▁aincorrect	-14.1582
▁41131	-14.1583
▁41189	-14.1586
strftime	-14.1588
▁atliaccessible	-14.1588
fromid	-14.159
▁41701	-14.1592
▁charupper	-14.1593
condition	-14.1596
▁aini	-14.1596
▁45678	-14.1596
1258	-14.1597
▁stoul	-14.1598
etc	-14.1604
▁41825	-14.1605
▁47938	-14.1606
▁pcch	-14.1614
▁41599	-14.1615
▁41487	-14.162
▁004228	-14.1623
lis	-14.1631
▁41003	-14.1632
▁40172	-14.1636
▁decomp	-14.1636
096	-14.1639
▁saxpav	-14.1643
▁ay	-14.1647
▁qaejh	-14.1648
▁40476	-14.1648
core	-14.1648
izing	-14.1656
▁getat	-14.1656
▁100024	-14.1657
snull	-14.1661
▁41397	-14.1662
▁8040	-14.1666
▁41646	-14.167
▁papau	-14.1671
▁4743	-14.1672
▁ppt	-14.1673
0124	-14.1681
▁41084	-14.1682
▁49693	-14.1683
▁41526	-14.1688
oid	-14.1692
ceil	-14.1704
bepbu	-14.1705
▁42706	-14.1709
▁41551	-14.1712
▁taskcollection	-14.1713
▁gethost	-14.1718
▁41387	-14.172
▁48386	-14.1737
sqlex	-14.1738
▁42826	-14.1743
▁43830	-14.1751
▁48737	-14.1753
run	-14.1754
filesize	-14.1758
storage	-14.1766
moneypunct	-14.1766
▁ansiuppercase	-14.1766
▁yaxabv	-14.1767
▁tgridrect	-14.1768
aborted	-14.1768
▁10343	-14.1776
kclient	-14.1777
▁hooks	-14.1777
referenced	-14.1777
orman	-14.1778
8047	-14.1779
hstd	-14.1783
▁iaepauc	-14.1783
▁ansis	-14.1786
szexefile	-14.1788
▁bdacl	-14.1796
▁40338	-14.18
▁getname	-14.1804
pbdii	-14.1836
getenv	-14.1838
▁41522	-14.1842
acking	-14.1843
▁46800	-14.1846
▁40260	-14.1847
▁libid	-14.1851
▁42004	-14.1852
ake	-14.1858
ffbd	-14.1859
ncount	-14.1862
▁ygxaavc	-14.1864
▁4784	-14.1864
▁42572	-14.1873
▁100096	-14.1876
▁41109	-14.1877
scheme	-14.1884
ibn	-14.1888
▁ansistringo	-14.1896
▁iaeh	-14.19
▁anan	-14.191
▁tinterface	-14.1923
▁41519	-14.1927
▁8001000	-14.1928
regex	-14.193
▁2018	-14.1935
general	-14.1937
000417	-14.1938
▁40162	-14.194
815	-14.194
▁103469	-14.1942
creation	-14.1947
▁bcdtostr	-14.1949
sysreallocstring	-14.1949
02925	-14.195
returnbuffer	-14.195
1060	-14.1952
38726	-14.1957
822	-14.1957
operations	-14.1958
6298	-14.1965
▁getexitcode	-14.197
▁40400	-14.1972
▁43257	-14.1994
▁lpn	-14.1998
▁40410	-14.2001
▁4862	-14.2004
outbuffer	-14.2004
▁41186	-14.2005
▁40658	-14.2024
hpau	-14.2026
▁4705	-14.203
981	-14.2031
gpautag	-14.2031
▁41298	-14.2031
beaa	-14.2038
ide	-14.2047
▁41435	-14.2047
▁40117	-14.2052
▁4765	-14.2054
▁140044	-14.2059
▁41625	-14.2062
xpavc	-14.2065
▁42179	-14.2065
fedc	-14.2067
▁aexe	-14.2073
lpsecurity	-14.2073
as	-14.208
▁40371	-14.2084
2228	-14.2088
▁assh	-14.2091
▁41466	-14.2096
▁41253	-14.21
fffea	-14.2103
▁42014	-14.2108
▁40204	-14.2109
▁twmpa	-14.2112
▁41593	-14.2114
▁6666666	-14.2121
▁4684	-14.2126
▁kpbdhpaghh	-14.2133
▁wcstombs	-14.2133
▁tidtcp	-14.2133
operator	-14.2134
showing	-14.2135
ffaf	-14.214
rop	-14.2143
▁setwin	-14.2144
▁listarray	-14.2145
▁getwin	-14.2147
▁42374	-14.2154
▁40173	-14.2156
▁46873	-14.2165
segment	-14.2165
nlen	-14.2178
▁40995	-14.2182
▁40340	-14.2183
816	-14.2188
▁gettemplate	-14.2195
webuser	-14.2199
▁40784	-14.22
▁42146	-14.2204
grow	-14.2208
▁ibe	-14.2216
mo	-14.2218
▁41181	-14.2223
1660	-14.2225
becb	-14.223
▁42164	-14.2231
▁41374	-14.2233
▁transfer	-14.2234
▁42092	-14.2237
▁00401	-14.2241
▁45211	-14.2245
dprotect	-14.2248
▁comis	-14.2263
45264	-14.2268
settingchange	-14.227
stored	-14.2272
203	-14.2274
▁44915	-14.228
▁43734	-14.2284
40258	-14.2287
fbec	-14.2293
▁setup	-14.2297
▁40528	-14.23
▁41246	-14.23
args	-14.2309
▁42040	-14.2311
813	-14.2312
aig	-14.2314
fffffda	-14.2317
ipbd	-14.2318
threadpoo	-14.2322
collate	-14.2322
queuecallback	-14.2322
▁gettemppath	-14.2322
attach	-14.2322
ownerdraw	-14.2322
rethrow	-14.2323
▁afxinternal	-14.2324
▁ainclude	-14.2324
bitmapfile	-14.2331
▁40919	-14.2334
▁45056	-14.2335
lresult	-14.2335
▁45610	-14.234
▁446988	-14.2341
01510	-14.2345
▁45670	-14.2347
▁1006	-14.2348
▁100092	-14.2354
umod	-14.2359
▁41841	-14.2379
pto	-14.238
▁arun	-14.2381
▁42527	-14.2392
34312	-14.2401
▁100132	-14.2405
▁46069	-14.2406
▁42493	-14.2413
▁41114	-14.2416
▁40417	-14.2417
▁40752	-14.2421
▁41354	-14.2422
▁whh	-14.2425
▁cjin	-14.2426
▁140009	-14.2428
aeaa	-14.2432
remote	-14.2432
cksize	-14.2433
▁46295	-14.2438
▁for	-14.2442
▁4008	-14.2442
43768	-14.2444
destinationsi	-14.2449
98968	-14.2451
systemmenu	-14.2451
▁4901	-14.2481
2708	-14.2482
▁46198	-14.2491
ccom	-14.2494
012	-14.2494
▁4766	-14.2501
tray	-14.2506
ttabbed	-14.2507
localef	-14.251
idtcpserver	-14.2511
▁frameunwind	-14.2514
▁pmxcd	-14.2514
getatomname	-14.2514
▁traitsiweee	-14.2514
▁aautoitscript	-14.2514
fully	-14.2514
▁aguidrag	-14.2515
rnds	-14.2515
szinfo	-14.2517
lpparameter	-14.2519
▁40984	-14.252
▁4955	-14.2522
tbk	-14.2533
mday	-14.2533
execution	-14.2542
▁getbutton	-14.2547
▁42518	-14.2557
▁41907	-14.2558
40042	-14.2562
▁40267	-14.2564
▁gettoken	-14.2566
▁readdi	-14.2566
▁pre	-14.2569
▁46225	-14.2569
12024	-14.2571
metrics	-14.2573
listact	-14.2578
▁4783	-14.2586
▁40303	-14.2588
▁rcupdate	-14.2594
▁tw	-14.2597
▁45712	-14.2598
▁4777	-14.2604
▁43773	-14.2605
0134	-14.2607
▁42006	-14.262
▁42571	-14.262
fffbff	-14.262
6287	-14.2634
uip	-14.2636
▁41812	-14.2638
bcac	-14.2638
941	-14.2638
separat	-14.2644
▁40185	-14.2649
wbuf	-14.2652
▁100078	-14.2659
tional	-14.2663
ame	-14.2664
▁pebu	-14.2665
ipauh	-14.2665
▁idsock	-14.2667
▁4746	-14.2675
psz	-14.2676
▁40777	-14.268
prot	-14.2683
▁44600	-14.2691
▁ams	-14.2697
▁40934	-14.2704
▁42394	-14.2704
tabstop	-14.2709
6488	-14.2709
gjpauh	-14.271
▁revoke	-14.271
▁wkpbdh	-14.271
▁wmnc	-14.271
messagetime	-14.2712
▁createbrush	-14.2715
▁updateall	-14.2715
windowstation	-14.2719
▁41238	-14.2722
msgfilter	-14.2723
▁40757	-14.2727
▁qqrrp	-14.2728
▁40167	-14.273
▁comparestr	-14.2731
▁charlower	-14.2732
6408	-14.2744
winapi	-14.2754
▁coledatasource	-14.2756
tabbedtext	-14.2765
▁4771	-14.2767
▁43473	-14.2769
sqltim	-14.2769
▁46713	-14.277
▁40854	-14.2772
▁41532	-14.2787
use	-14.2792
select	-14.28
sfont	-14.2804
▁43328	-14.2807
cancel	-14.2809
▁40946	-14.2809
▁4778	-14.2811
green	-14.2815
extract	-14.2821
▁40616	-14.2823
▁filesize	-14.2827
oleobject	-14.2827
▁40251	-14.284
▁iteratori	-14.2842
▁40419	-14.2842
▁3310	-14.2844
▁40175	-14.2844
▁40463	-14.2851
unique	-14.2853
▁46589	-14.2855
1638	-14.2856
▁41363	-14.2857
▁4867	-14.2859
▁setcurrent	-14.286
▁pretranslate	-14.2861
▁43143	-14.2861
217	-14.2861
▁41553	-14.2864
▁ieaa	-14.2866
unregister	-14.2869
▁41032	-14.2869
▁41011	-14.2875
5310	-14.2877
▁aun	-14.2877
▁8050	-14.2877
▁42309	-14.2879
startex	-14.2881
▁40138	-14.2883
▁4875	-14.2884
▁41697	-14.2889
tem	-14.2889
▁46086	-14.2895
▁lhz	-14.2903
▁40586	-14.2904
▁40588	-14.2907
▁41796	-14.2907
idrfcrepl	-14.2907
▁afxloadlang	-14.291
▁twmnc	-14.291
body	-14.2911
▁acannot	-14.2911
▁tddeclientitem	-14.2912
▁tidrfcrepl	-14.2913
▁isvalidlocale	-14.2913
unchecked	-14.2914
▁getopenfilename	-14.2914
▁createicon	-14.2915
▁iaehpa	-14.2916
▁48917	-14.2926
fnc	-14.2929
readfil	-14.2929
▁100099	-14.2931
▁4754	-14.2932
▁48285	-14.2935
▁40272	-14.2937
▁1001150	-14.2942
▁42755	-14.2954
▁openprinter	-14.2959
jpautag	-14.296
▁42211	-14.296
▁41036	-14.2962
▁223	-14.2966
▁42393	-14.2973
itema	-14.2974
virtual	-14.2975
▁qaa	-14.2986
▁44558	-14.2988
axpax	-14.299
currentc	-14.2991
▁getwindowext	-14.2992
▁getmenustring	-14.2998
▁4708	-14.2999
▁4732	-14.3007
slist	-14.3011
▁4888	-14.3013
60046	-14.3014
▁40334	-14.3015
▁1101	-14.3021
paui	-14.3023
▁40855	-14.3023
▁41809	-14.3026
▁41931	-14.3029
▁41798	-14.3031
circ	-14.3033
▁arelease	-14.3034
acl	-14.3037
▁100091	-14.3049
tn	-14.3051
▁199	-14.3052
▁strp	-14.3057
finity	-14.306
▁40545	-14.3061
▁140027	-14.3062
▁41538	-14.3073
▁40964	-14.3076
xabu	-14.3079
▁aimagelist	-14.3085
fffffbc	-14.3086
▁44240	-14.3087
▁41530	-14.3094
▁force	-14.3096
▁40469	-14.3102
rysis	-14.3114
▁tcxtreelistc	-14.3114
acceleratortable	-14.3115
▁pimageinfo	-14.3115
▁rtcrandom	-14.3115
getshortpathname	-14.3115
▁afxdel	-14.3115
▁40490	-14.3119
inner	-14.312
▁41765	-14.3123
▁42084	-14.3128
▁40888	-14.3131
threada	-14.3141
gx	-14.3145
osfile	-14.315
▁42995	-14.3152
getmenustring	-14.3153
▁psra	-14.3157
▁40337	-14.316
▁42574	-14.3163
▁44824	-14.3164
inter	-14.3171
ffad	-14.3174
▁40128	-14.3181
▁40158	-14.3182
▁46384	-14.3184
▁1105	-14.3188
bitmaps	-14.3189
▁41368	-14.3196
ffffe	-14.3201
processmemory	-14.3202
▁100219	-14.3205
▁recv	-14.3214
▁377	-14.3214
▁41299	-14.3221
▁740	-14.3224
prin	-14.3227
▁40572	-14.3228
▁1400652	-14.3232
1130	-14.3235
▁41193	-14.324
20648	-14.3241
1134	-14.3243
▁41359	-14.3244
▁140086	-14.3246
▁588	-14.3253
▁45599	-14.3255
nti	-14.3258
▁40407	-14.3262
▁46361	-14.3264
▁iaexpavc	-14.3268
▁redu	-14.3277
▁42354	-14.3278
▁40683	-14.328
404024	-14.3282
▁crc	-14.3287
▁aeav	-14.3287
axpadipbd	-14.329
▁44349	-14.329
fcle	-14.3291
▁qqrrpv	-14.3298
▁140067	-14.3299
▁43898	-14.3309
▁timezone	-14.3312
nitcommoncontrol	-14.3315
▁amedium	-14.3322
▁rtcvarbstrfrom	-14.3323
▁rgsabound	-14.3323
▁getdrivetype	-14.3323
▁aesdec	-14.3323
secondary	-14.3323
colwidths	-14.3323
▁getnodeat	-14.3323
dhqah	-14.3324
essinformation	-14.3324
▁afxterm	-14.3329
▁1234	-14.333
▁14006040	-14.3336
▁42012	-14.3341
▁1400042	-14.3349
threadmessage	-14.3349
▁41405	-14.3373
▁8080	-14.3374
▁clist	-14.3384
1100	-14.3388
▁40132	-14.3389
▁41287	-14.3399
▁41305	-14.3399
kn	-14.34
▁41444	-14.341
▁qeaahh	-14.3416
▁3541	-14.3417
▁unp	-14.3419
▁41085	-14.342
hqau	-14.3431
▁4000000	-14.3435
popup	-14.3444
0587	-14.3447
iskey	-14.3448
efaf	-14.3449
▁100180	-14.3461
▁140053	-14.3462
▁45622	-14.3463
quit	-14.3466
▁41569	-14.3466
▁naa	-14.3472
dbac	-14.3473
▁4797	-14.3473
6806	-14.3474
▁4894	-14.3477
▁40486	-14.3482
▁42252	-14.3483
▁46091	-14.3486
stringtool	-14.3489
▁42023	-14.3491
▁registerclassex	-14.3497
▁endthread	-14.3501
▁strcom	-14.3506
monitorfrompoi	-14.3514
4405	-14.3517
▁640000	-14.3524
qapa	-14.3527
▁aterminal	-14.3533
▁agetproc	-14.3535
▁phprov	-14.3535
monitorfromrec	-14.3535
▁getffld	-14.3536
▁aafxcontrolbar	-14.3536
margin	-14.3536
privilegevalue	-14.3536
embl	-14.3537
▁yahqbn	-14.3538
iscontrol	-14.3538
istri	-14.3539
▁wqai	-14.354
▁41473	-14.3541
5730	-14.3541
itoa	-14.3542
▁vbalen	-14.3545
▁42227	-14.3552
nil	-14.3555
▁48454	-14.356
▁45728	-14.356
▁46369	-14.3571
▁tfloat	-14.3573
setrect	-14.3579
▁drawe	-14.3581
▁aactive	-14.3581
hpal	-14.3589
▁41742	-14.3593
▁41975	-14.3595
▁2003	-14.3596
▁setat	-14.3598
setactivewindo	-14.3599
▁100050	-14.3601
▁ase	-14.3603
send	-14.3604
▁42880	-14.3609
selection	-14.361
beab	-14.3611
▁4753	-14.3612
▁ccom	-14.3614
▁100089	-14.3623
▁40332	-14.3626
hpbut	-14.3627
▁1671	-14.3629
protocols	-14.363
▁41390	-14.3634
▁41525	-14.3637
▁copyfile	-14.3638
center	-14.3639
▁45460	-14.3641
2104	-14.3647
▁40842	-14.3653
▁41443	-14.3653
43474	-14.3657
disconnect	-14.3657
▁45700	-14.3659
▁41202	-14.3663
▁140013	-14.3663
▁40122	-14.3666
▁pcmp	-14.3666
▁42038	-14.3677
▁45144	-14.3677
▁100075	-14.3681
ustom	-14.3682
▁40593	-14.3683
▁45646	-14.3684
tresource	-14.3686
afcc	-14.3689
▁140072	-14.3694
▁46199	-14.3694
▁40105	-14.3697
▁41158	-14.37
▁41356	-14.3702
localename	-14.3704
▁ischar	-14.3708
▁40348	-14.371
▁4821	-14.3712
▁1109	-14.3715
▁nto	-14.3715
monitorfromwin	-14.372
▁40392	-14.3727
7290	-14.3727
402420	-14.3728
▁44514	-14.3735
▁40327	-14.3736
reated	-14.3746
▁4772	-14.3746
▁40390	-14.3746
▁44305	-14.3748
hiconsm	-14.3751
exitproc	-14.3752
excep	-14.3752
attribute	-14.3753
▁httpqueryinfo	-14.3753
▁rtcmidchar	-14.3753
▁xmmcopysmall	-14.3753
▁setupdidestroyd	-14.3753
wcsftime	-14.3753
windowsdirectory	-14.3753
▁yaxpeavc	-14.3753
▁trystrtoint	-14.3754
winhelp	-14.3754
bisize	-14.3754
apeav	-14.3754
▁aafxwnd	-14.3755
extrainfo	-14.3756
threadparam	-14.3761
▁40435	-14.3763
droptarget	-14.3763
▁41366	-14.3764
▁tcustomcontrol	-14.3764
emcp	-14.3764
recv	-14.3765
▁getstringtypeex	-14.3766
▁lang	-14.3767
▁safe	-14.3768
▁275	-14.3768
▁1127	-14.3772
▁getthrow	-14.3773
lwr	-14.3776
tali	-14.3785
▁45561	-14.379
▁41976	-14.3793
▁yahaa	-14.3802
lfi	-14.3808
▁40190	-14.3811
▁41523	-14.3812
2700	-14.3813
5890	-14.3813
▁40533	-14.3814
6290	-14.3821
▁42480	-14.3835
▁41362	-14.3844
▁41120	-14.3847
terror	-14.3851
▁46466	-14.3858
freeze	-14.386
keyname	-14.386
▁40153	-14.3863
▁44430	-14.3863
fields	-14.3869
▁41315	-14.3869
▁41440	-14.387
▁40967	-14.3877
▁45535	-14.388
▁40594	-14.3884
instr	-14.3887
tv	-14.3887
▁setv	-14.3893
▁40213	-14.3899
feff	-14.3904
▁44802	-14.3907
ffde	-14.3911
▁41908	-14.3911
▁140073	-14.3911
▁41883	-14.392
▁41661	-14.393
▁45425	-14.3932
▁41116	-14.3934
host	-14.3942
▁41235	-14.3946
dlength	-14.3949
01343	-14.3951
▁41088	-14.3952
1080	-14.3954
▁41239	-14.3957
▁1400156	-14.3959
▁4852	-14.3961
lastaccesstime	-14.3968
▁41566	-14.3969
tableindexfroml	-14.3975
overlapped	-14.3975
▁ataskbarc	-14.3975
▁shufp	-14.3975
getattributenode	-14.3975
▁npavwork	-14.3975
▁ddecreate	-14.3975
▁naau	-14.3977
▁setmodified	-14.3978
▁getmonitorinfow	-14.3979
▁42550	-14.3979
▁hmod	-14.398
▁qqrrus	-14.3983
cob	-14.3983
▁ddefree	-14.3984
▁4816	-14.3985
▁tobjectfield	-14.3986
▁saveto	-14.3995
papax	-14.3996
▁monitorfrompoin	-14.3998
fffffa	-14.3999
▁4775	-14.4001
▁4896	-14.4008
7278	-14.4008
▁coregister	-14.401
▁40212	-14.4011
▁41072	-14.4016
▁41037	-14.4022
▁206	-14.4026
7271	-14.4035
▁40139	-14.4035
▁geto	-14.4036
05744	-14.4038
setwindow	-14.4041
▁41301	-14.4042
▁42150	-14.4044
▁41859	-14.405
1678	-14.4053
▁372	-14.4055
▁808080	-14.4055
▁41229	-14.4064
▁40898	-14.4067
▁41058	-14.4067
▁4801	-14.4069
▁46387	-14.4071
6469	-14.4077
▁afxcr	-14.4087
▁140045	-14.4089
debug	-14.4093
▁4860	-14.4097
stringp	-14.41
▁qqml	-14.4108
▁40493	-14.411
axpavc	-14.4113
▁40350	-14.4113
1110	-14.4114
▁createdialog	-14.412
▁43846	-14.4122
cursorin	-14.4124
positi	-14.4126
▁40494	-14.413
18000	-14.413
▁41057	-14.4131
▁vararray	-14.4134
▁42335	-14.4135
lpdirectory	-14.4138
dun	-14.4139
6547	-14.4139
1894	-14.4155
bcbb	-14.4156
▁7519	-14.416
▁46961	-14.416
▁46561	-14.4162
sende	-14.4166
▁crtco	-14.4169
▁40608	-14.4171
▁40975	-14.4181
▁43610	-14.4184
▁40466	-14.4187
unexpected	-14.4192
fcdc	-14.4192
4240	-14.4195
pathfromidlist	-14.4202
▁aafxmdiframe	-14.4202
▁aafxolecontrol	-14.4202
▁vkkeyscan	-14.4202
languageenumproc	-14.4202
units	-14.4203
ernetqueryoption	-14.4204
▁dodrag	-14.4206
▁4720	-14.4206
▁aappend	-14.4208
▁40595	-14.4208
convert	-14.4212
▁setmenuitem	-14.4212
▁46573	-14.4212
pause	-14.4214
▁eole	-14.4217
▁tdatasetstate	-14.4217
orview	-14.4218
▁41515	-14.4222
▁41297	-14.4222
▁44906	-14.4227
▁46210	-14.4227
8189	-14.4233
tounicode	-14.4244
▁setlayered	-14.4246
▁41777	-14.4247
02344	-14.4247
▁4854	-14.425
ninit	-14.4251
▁40892	-14.4251
filelist	-14.4256
▁getas	-14.4265
alrealloc	-14.4266
▁100010	-14.4268
▁40830	-14.4268
▁regenumkeyex	-14.4273
▁40797	-14.4279
ffffdff	-14.428
▁40622	-14.4284
640000	-14.4284
5240	-14.4285
▁cpreview	-14.4286
▁41445	-14.4287
▁4889	-14.4289
▁41232	-14.429
▁43063	-14.4291
▁40362	-14.4295
paxk	-14.43
▁41450	-14.4303
vsw	-14.4306
abac	-14.4309
▁ctr	-14.4311
dm	-14.4312
▁4830	-14.4312
▁41693	-14.4319
becc	-14.4321
▁wcstol	-14.4322
▁41459	-14.4324
factory	-14.4325
web	-14.4326
▁40133	-14.4329
wcs	-14.433
cleanup	-14.4334
archive	-14.4337
▁46075	-14.4341
▁aoc	-14.4344
elx	-14.4344
▁alignform	-14.4344
▁44061	-14.4347
▁41499	-14.435
▁41771	-14.4352
▁42585	-14.4355
pbd	-14.4357
▁4868	-14.436
mapstringto	-14.4364
▁45635	-14.4365
▁40632	-14.4368
▁41578	-14.4369
▁4886	-14.4372
▁nkab	-14.4374
bced	-14.4375
▁fg	-14.4381
▁40520	-14.4382
▁setvar	-14.4387
nts	-14.4388
cebc	-14.4388
alt	-14.439
▁40525	-14.4393
▁41074	-14.4393
▁1656	-14.4394
▁4803	-14.4395
▁41389	-14.4395
▁luid	-14.4399
getwindow	-14.4403
port	-14.4407
you	-14.4416
▁44850	-14.4418
▁4940	-14.4418
▁afailedto	-14.4419
▁user	-14.442
▁46731	-14.4421
valid	-14.4421
6284	-14.4423
▁40499	-14.4429
ti	-14.4429
abcf	-14.4432
▁1400600	-14.4434
▁wpapb	-14.4434
bffe	-14.4435
taglv	-14.4435
uiiiiiuiii	-14.4435
▁loadfromstream	-14.4435
▁znst	-14.4436
termination	-14.4436
10132	-14.4439
inherited	-14.444
▁wcstox	-14.4442
▁tchart	-14.4442
abnormal	-14.4446
▁41474	-14.4448
0962	-14.4448
07308	-14.4449
pbg	-14.445
▁4935	-14.4454
▁100157	-14.4459
▁ums	-14.446
save	-14.4462
del	-14.4465
htmlhelp	-14.4465
43260	-14.4467
▁40500	-14.4475
▁nabd	-14.4477
edee	-14.4478
▁40215	-14.4479
stg	-14.449
▁371	-14.4491
▁41312	-14.4495
2858	-14.4496
▁41994	-14.4496
▁42888	-14.4497
▁40864	-14.4502
▁44047	-14.4506
▁4890	-14.4508
▁267	-14.4516
layout	-14.4516
sindex	-14.4519
▁42425	-14.4519
▁40585	-14.452
▁41496	-14.4523
▁41830	-14.4525
▁44725	-14.4526
▁getscope	-14.4527
▁46568	-14.4535
▁astream	-14.4535
locks	-14.4536
▁140080	-14.4536
bffd	-14.4539
▁41494	-14.454
▁48763	-14.4542
6839	-14.4542
▁41576	-14.4547
▁43285	-14.4549
▁41097	-14.4553
▁47964	-14.456
▁0042	-14.4562
02327	-14.4563
▁49656	-14.4563
08108	-14.4565
▁46588	-14.4571
▁43886	-14.4572
1120	-14.4578
▁tpointo	-14.4579
shell	-14.4579
▁48299	-14.4579
▁40836	-14.4585
▁46969	-14.4589
▁qqrusi	-14.459
▁40760	-14.4592
▁100088	-14.4593
▁41848	-14.4593
reposition	-14.4594
▁4851	-14.4595
▁42357	-14.4598
abno	-14.4599
▁iaepauh	-14.4608
▁40856	-14.4609
▁41376	-14.4613
▁8800	-14.4621
▁44241	-14.4622
▁istr	-14.4623
bada	-14.4624
▁44604	-14.4625
00000000	-14.4625
▁40566	-14.4628
localdat	-14.4629
cfixedalloc	-14.4636
▁43306	-14.4638
transfer	-14.4641
▁clone	-14.4641
▁42074	-14.4643
▁40956	-14.4654
itset	-14.4655
▁3546	-14.4657
ji	-14.4662
winsta	-14.4664
▁tindexdef	-14.4669
▁40203	-14.4669
▁agold	-14.4672
setupdigetdevice	-14.4673
▁alinksource	-14.4673
▁tidcookie	-14.4677
fileexists	-14.4681
▁getprev	-14.4681
▁45792	-14.469
▁41275	-14.4691
6460	-14.4692
▁42278	-14.4693
▁46368	-14.4699
▁41167	-14.4701
▁41679	-14.4705
▁42317	-14.4706
▁getheader	-14.4707
▁45495	-14.4713
▁40826	-14.4718
▁aolea	-14.4719
findfirst	-14.472
1138	-14.4721
▁408548	-14.4726
▁44256	-14.473
▁40793	-14.4735
bbfa	-14.4743
▁awindow	-14.4743
▁42496	-14.4749
▁dwfl	-14.475
▁4965	-14.4756
▁wmpa	-14.4757
▁41143	-14.4757
▁41732	-14.4762
▁41413	-14.477
▁40278	-14.4775
shared	-14.4776
▁40948	-14.4777
▁42944	-14.4777
ccccccc	-14.4779
▁40695	-14.4779
eof	-14.4783
▁42049	-14.4784
▁44242	-14.4785
abstr	-14.479
▁getuserdefaultl	-14.4793
3277	-14.4798
▁40174	-14.4798
hhhhhhh	-14.4802
▁appe	-14.4831
serial	-14.4831
▁140076	-14.4831
comparestringe	-14.4835
▁44640	-14.4843
ffcb	-14.4844
▁3536	-14.4848
▁ygk	-14.4849
▁43998	-14.485
▁43022	-14.4854
gettimeformate	-14.4854
uiuip	-14.4855
▁266	-14.4856
▁40502	-14.4858
▁40165	-14.4858
▁42400	-14.4859
createfile	-14.4861
▁140099	-14.4864
9058	-14.4866
▁41835	-14.4867
▁1044	-14.4879
bfaf	-14.4882
▁41936	-14.4889
▁41807	-14.4892
graphic	-14.4897
▁41647	-14.4898
▁vcl	-14.4898
▁41234	-14.49
▁cmplt	-14.4902
▁41823	-14.4903
▁43813	-14.4904
▁4899	-14.4911
▁unchecked	-14.4915
▁40164	-14.4915
inpos	-14.4916
semaphore	-14.4917
description	-14.4917
strnicoll	-14.4917
▁acontrolpanel	-14.4917
allowed	-14.4918
tnames	-14.4918
debuginfo	-14.4918
▁40178	-14.4919
proper	-14.492
ut	-14.4924
5800	-14.4924
5904	-14.4925
▁pprinter	-14.4925
▁40437	-14.4929
▁43692	-14.493
▁43413	-14.493
defc	-14.4931
10468	-14.4932
▁tprinter	-14.4933
bfeb	-14.4935
▁aregister	-14.4936
▁setro	-14.494
▁140098	-14.494
▁41082	-14.4947
▁qbej	-14.4948
dsbm	-14.495
inactive	-14.4951
▁4998	-14.4952
▁qqrpqqr	-14.4954
▁40742	-14.4961
11256	-14.4961
▁1000920	-14.4969
▁41017	-14.4971
finddata	-14.4973
▁40308	-14.4973
▁41409	-14.4973
▁40820	-14.4976
▁43665	-14.4979
▁gettimeformat	-14.4981
▁41788	-14.4986
▁42239	-14.4987
▁40845	-14.499
▁42206	-14.4993
▁7000	-14.4996
▁42100	-14.4996
▁41973	-14.4998
▁47686	-14.5
▁qaehhhh	-14.5
▁1003112	-14.5002
▁40434	-14.5004
▁enumresource	-14.5004
mutex	-14.5006
▁40756	-14.5009
▁afxdlg	-14.5014
nidle	-14.5015
▁wnet	-14.5021
▁40705	-14.5027
▁40746	-14.503
▁40473	-14.503
▁140024	-14.503
yref	-14.5032
▁42025	-14.5036
▁atimeptrtm	-14.5044
▁42199	-14.5044
▁40309	-14.5047
▁40388	-14.5047
selections	-14.5048
▁41199	-14.5053
▁48134	-14.5053
acos	-14.5053
▁sets	-14.5055
▁wpai	-14.5055
pbdg	-14.5058
▁140094	-14.5065
mun	-14.5066
▁42503	-14.5066
▁40143	-14.5067
6894	-14.507
▁40517	-14.5072
▁40344	-14.5075
▁setmax	-14.5084
▁3539	-14.5086
▁41887	-14.5087
▁42583	-14.5087
service	-14.5089
▁43864	-14.5091
▁4923	-14.5092
▁4872	-14.5093
▁4767	-14.5094
noin	-14.5094
▁41638	-14.5095
faae	-14.5097
▁43128	-14.5101
▁42789	-14.5102
anti	-14.5102
▁lpuse	-14.5107
▁setupop	-14.5108
▁46297	-14.5111
icustom	-14.5113
aime	-14.5119
coll	-14.5121
baba	-14.5124
▁40771	-14.5124
ffce	-14.513
▁40238	-14.5133
fffffdfb	-14.5134
▁42129	-14.5137
▁43188	-14.5138
▁41681	-14.5143
setdefault	-14.5146
▁40776	-14.5146
disable	-14.5148
▁regqueryvalue	-14.5149
▁40170	-14.5149
ole	-14.5151
▁40489	-14.5151
▁41575	-14.5152
▁4873	-14.5152
▁41728	-14.5159
ij	-14.5161
validparent	-14.5163
alignloop	-14.5166
tempfilename	-14.5167
uiiiiiui	-14.5167
getnative	-14.5167
▁asplash	-14.5167
▁oemtochar	-14.5167
▁regdeletevalue	-14.5167
patternbrush	-14.5167
▁avariable	-14.5167
▁xmmaligndword	-14.5167
▁afxoleterm	-14.5167
▁kkpbdh	-14.5167
▁ddequery	-14.5167
▁pconvinfo	-14.5167
▁ahome	-14.5168
invalidarg	-14.5168
▁copyupdword	-14.5168
▁serialize	-14.5169
▁43613	-14.5169
▁pwszk	-14.517
202020	-14.517
updown	-14.5171
mil	-14.5172
pitch	-14.5173
geti	-14.5173
▁40127	-14.5175
▁setrow	-14.5177
▁42360	-14.5186
▁40290	-14.5187
dlgcontrol	-14.5187
▁agetsystem	-14.5189
▁copysi	-14.519
frac	-14.5191
▁46084	-14.5192
▁41794	-14.5192
▁40314	-14.5199
▁createstd	-14.52
3440	-14.5207
▁44362	-14.5215
▁41218	-14.5217
▁41329	-14.5218
▁after	-14.5222
▁46936	-14.5226
▁8051	-14.5229
tin	-14.5229
▁41153	-14.5232
▁40495	-14.524
gettickcount	-14.5241
▁44449	-14.5247
▁41103	-14.5248
itefactory	-14.5255
▁46222	-14.5255
▁43685	-14.5256
1108	-14.5266
lldll	-14.5267
▁35501	-14.5268
▁41687	-14.5274
columnwidth	-14.5274
▁41005	-14.5277
▁pbg	-14.5278
▁40713	-14.528
▁alog	-14.5283
▁47153	-14.5286
▁140025	-14.5288
▁41748	-14.5295
kqau	-14.5295
ium	-14.53
10000	-14.5302
▁4788	-14.531
▁socket	-14.5311
▁usertime	-14.5313
tan	-14.5317
▁140081	-14.5318
syserror	-14.5319
ave	-14.5324
▁46787	-14.5334
▁45608	-14.5341
▁41212	-14.5342
▁41850	-14.5343
▁41657	-14.5344
▁1003203	-14.5345
asin	-14.5348
▁41029	-14.5353
▁yaxpaxi	-14.5357
invokehelper	-14.5363
▁40702	-14.5367
awb	-14.5369
api	-14.5369
befe	-14.537
▁afxset	-14.5372
▁isdlg	-14.5375
▁45775	-14.5376
▁40812	-14.5376
▁4831	-14.538
▁4881	-14.5385
▁ansistringro	-14.5386
ddu	-14.5388
▁40249	-14.5388
▁40903	-14.5391
▁46689	-14.5392
▁48620	-14.5397
ironmentstrings	-14.5398
rlf	-14.5399
▁43195	-14.5406
▁iostate	-14.5406
▁43509	-14.5409
getstat	-14.541
▁acouldnot	-14.5411
wildcard	-14.5412
▁41618	-14.5413
bind	-14.5415
bytesavailable	-14.5416
▁42217	-14.5421
▁dwauth	-14.5423
▁agetselected	-14.5423
▁mcisend	-14.5423
immreleasecont	-14.5423
inside	-14.5423
isappthemed	-14.5423
▁tblobfield	-14.5423
▁adllcallback	-14.5423
▁ainetget	-14.5423
▁adllstructget	-14.5423
▁psfi	-14.5423
▁atrayitemset	-14.5424
▁adrivemap	-14.5424
▁atrayitemget	-14.5424
▁yaiaa	-14.5424
▁ainiread	-14.5424
biy	-14.5425
cessar	-14.5428
▁yahqbd	-14.5429
fromvar	-14.5431
▁auint	-14.5432
▁45530	-14.5434
▁40703	-14.5436
▁mae	-14.5438
intri	-14.5439
▁acomments	-14.544
6395	-14.544
▁41379	-14.5441
readsigna	-14.5443
▁44137	-14.5444
nexit	-14.5445
nfilter	-14.5446
▁140077	-14.5447
▁40625	-14.5447
qadi	-14.5447
▁maximum	-14.5447
▁afilename	-14.545
▁40497	-14.545
▁setdate	-14.5451
▁40114	-14.5452
ther	-14.5453
▁140095	-14.5454
▁3545	-14.5454
▁42344	-14.5459
▁amap	-14.5459
▁441020	-14.546
pent	-14.546
▁46585	-14.5462
▁41430	-14.5462
▁42050	-14.5465
▁afailedtogeta	-14.5465
▁4721	-14.5468
▁yahhh	-14.5469
faec	-14.5474
▁nkpa	-14.5474
▁aenv	-14.5475
▁40700	-14.5477
ffcc	-14.5479
▁40370	-14.548
▁40142	-14.5481
tocall	-14.5483
▁1400150	-14.5488
6838	-14.5489
▁42782	-14.549
▁setint	-14.5492
▁48361	-14.5493
▁421400	-14.5495
▁41641	-14.5495
▁41385	-14.5497
▁41542	-14.5498
▁43603	-14.5499
5045	-14.5499
▁42253	-14.5502
▁41829	-14.5507
▁41570	-14.5508
▁41095	-14.5512
▁40262	-14.5512
▁41277	-14.5513
1254	-14.5514
▁41698	-14.5517
▁41690	-14.5517
▁252	-14.5517
▁40557	-14.552
▁40387	-14.552
▁41323	-14.5522
kabutag	-14.5534
▁41080	-14.5537
▁40809	-14.5537
▁gettime	-14.554
▁40273	-14.5544
▁wqa	-14.5546
▁4779	-14.5548
▁45679	-14.5549
▁49774	-14.5552
▁41089	-14.5553
1664	-14.5555
▁40879	-14.5557
quick	-14.556
2108	-14.5565
gnd	-14.5569
▁40701	-14.5573
5208	-14.5574
bbfe	-14.5574
▁createdc	-14.5577
▁41139	-14.5578
▁47796	-14.558
gpax	-14.558
▁41205	-14.5583
▁1003258	-14.5587
each	-14.559
en	-14.5592
cmap	-14.5592
09687	-14.5596
▁equals	-14.5599
▁140070	-14.5607
▁42887	-14.5613
▁43999	-14.5614
▁42249	-14.5615
▁41735	-14.5618
1121	-14.5623
▁40182	-14.5626
gi	-14.5626
console	-14.5628
wcscats	-14.5628
▁40827	-14.5629
▁41283	-14.5631
▁48573	-14.5641
iaav	-14.5644
▁43607	-14.5645
▁361	-14.5646
▁41055	-14.5646
0029	-14.565
▁46074	-14.5657
▁1400217	-14.5657
clrf	-14.5662
▁setsb	-14.5663
▁41993	-14.5667
▁3544	-14.5672
adod	-14.5674
wheel	-14.5676
▁100138	-14.5681
▁46875	-14.5683
stringtoo	-14.5684
▁40673	-14.5684
▁floatto	-14.5686
▁49810	-14.5686
▁ayou	-14.5686
createtoolhelp	-14.5687
immgetcomposit	-14.5687
tlistcontrolitem	-14.5688
lstruct	-14.5688
externalcontext	-14.5689
▁sajp	-14.5689
▁nab	-14.5691
▁140090	-14.5694
▁41306	-14.5696
1654	-14.5697
statement	-14.5699
▁co	-14.57
▁439660	-14.5701
once	-14.5702
▁40657	-14.5704
ilde	-14.5704
▁42138	-14.5705
▁40706	-14.5707
bddc	-14.5716
▁42007	-14.5719
▁40637	-14.5719
▁41828	-14.572
pen	-14.5721
pebd	-14.5724
▁45757	-14.5724
▁iaexii	-14.5724
▁41380	-14.5726
▁1060	-14.5727
▁42784	-14.5729
▁40237	-14.5731
▁40866	-14.5733
28404	-14.5735
dfdc	-14.5735
▁42151	-14.5737
▁80532	-14.5741
▁40716	-14.5743
▁41597	-14.5747
▁41846	-14.5747
▁40955	-14.5747
▁qqruc	-14.5748
▁40802	-14.575
▁40423	-14.575
▁acurrent	-14.5751
▁44033	-14.5756
1048	-14.5761
▁save	-14.5762
accelerator	-14.5767
ctran	-14.5768
▁40813	-14.5768
▁play	-14.577
4388	-14.577
toplevel	-14.5771
▁42650	-14.5771
viewportext	-14.5771
▁40232	-14.5777
▁41878	-14.5778
▁43788	-14.5787
▁41546	-14.5788
createpen	-14.5789
▁beginthread	-14.5789
ecbc	-14.5796
▁41782	-14.5799
▁46469	-14.58
schedulegroup	-14.5801
▁42502	-14.5805
▁40259	-14.5806
1668	-14.5806
▁monitorfromrect	-14.5806
▁40285	-14.5809
▁40690	-14.5809
▁40229	-14.581
▁44612	-14.5814
systemdirectory	-14.5821
▁getdataset	-14.5823
▁41132	-14.5824
▁48498	-14.5826
▁43544	-14.5826
09960	-14.5829
▁42156	-14.5833
▁42204	-14.5834
▁getkeyname	-14.5839
▁273	-14.5839
▁41924	-14.5844
▁40397	-14.5849
▁46232	-14.5849
▁40372	-14.5853
0057	-14.5856
▁48390	-14.5856
bdbc	-14.5856
▁41145	-14.5856
1758	-14.5859
▁41025	-14.5862
▁41537	-14.5863
▁41021	-14.5864
▁alast	-14.5865
▁40230	-14.5867
▁40807	-14.5876
▁41024	-14.5878
3268	-14.588
snan	-14.588
▁42326	-14.588
▁44097	-14.5885
1658	-14.5887
▁40307	-14.5888
▁41665	-14.5891
ixp	-14.5892
▁40465	-14.5898
aabc	-14.5901
▁4987	-14.5902
bccd	-14.5902
▁140066	-14.5908
▁41574	-14.591
atecontrol	-14.5911
▁1400650	-14.5913
ght	-14.5913
▁40480	-14.5913
▁40536	-14.5918
fdea	-14.5919
▁strtou	-14.5919
▁41257	-14.592
▁4850	-14.592
6166	-14.5921
▁41648	-14.5922
itf	-14.5923
▁kpeau	-14.5924
▁100052	-14.5926
▁45674	-14.5929
▁41817	-14.593
▁100155	-14.5931
▁100020	-14.5933
▁41592	-14.5934
▁1400059	-14.5939
▁100051	-14.5939
match	-14.5944
▁43862	-14.5946
program	-14.5946
7530	-14.5949
6426	-14.5957
ponent	-14.5957
▁currtostr	-14.5957
▁42237	-14.5957
cfixedstring	-14.5957
3850	-14.5958
expire	-14.5959
algorithms	-14.5959
▁double	-14.5959
▁401400	-14.5959
audio	-14.596
remove	-14.5961
▁41832	-14.5963
▁41350	-14.5963
▁olevar	-14.5963
▁42010	-14.5965
▁afxcreate	-14.5971
▁40446	-14.5975
option	-14.5978
eeee	-14.5979
▁vsc	-14.5979
▁afxnext	-14.5982
▁40869	-14.5983
▁40217	-14.5985
eninf	-14.5985
▁40269	-14.5986
qqrp	-14.5999
6282	-14.5999
roll	-14.6006
▁140005	-14.6008
shortcuts	-14.6011
▁418630	-14.6016
▁41311	-14.6021
▁critical	-14.6026
kpaui	-14.6026
▁46181	-14.6027
▁42983	-14.6028
▁4745	-14.6029
▁4933	-14.6029
varianttime	-14.6031
▁40808	-14.6031
▁41967	-14.6033
▁snan	-14.6035
▁40438	-14.6037
▁41266	-14.6038
▁41388	-14.6038
▁43626	-14.6039
▁40481	-14.6041
▁42956	-14.6043
▁1012	-14.6047
tl	-14.6048
▁40274	-14.6052
▁100011	-14.6053
▁100106	-14.6054
bcef	-14.6055
▁setdock	-14.6055
▁140097	-14.6059
▁qaexpaui	-14.606
▁getpe	-14.6064
▁41584	-14.6066
▁qqrrpc	-14.6067
▁46674	-14.6074
▁42194	-14.6074
tip	-14.6076
pwsz	-14.6076
typelength	-14.6077
▁40954	-14.6079
▁41157	-14.608
▁44172	-14.6084
▁49413	-14.6086
▁psubs	-14.6087
▁41400	-14.6097
▁setse	-14.6097
▁41881	-14.6098
▁41758	-14.6099
4520	-14.61
▁42185	-14.6102
▁dwsta	-14.6102
46532	-14.6105
▁41652	-14.6109
desktop	-14.6111
▁42127	-14.6111
▁42312	-14.6124
▁44535	-14.6127
▁aco	-14.6129
▁42491	-14.613
▁43528	-14.6136
▁aobj	-14.6136
44324	-14.6138
▁140012	-14.6139
▁140084	-14.614
▁41896	-14.6142
▁40669	-14.6146
▁qaehhhhh	-14.6148
45618	-14.6149
feac	-14.615
▁qqsr	-14.6151
▁copydown	-14.6153
pbdpa	-14.6154
iio	-14.6158
42875	-14.616
▁42703	-14.6162
▁41533	-14.6164
▁41559	-14.6164
▁alight	-14.6165
▁42799	-14.6174
▁42182	-14.6176
▁41152	-14.6181
varbool	-14.6183
▁41548	-14.6188
0180	-14.6191
▁40607	-14.6193
▁unrealize	-14.6197
▁41514	-14.6197
▁42132	-14.6201
fffefff	-14.6203
▁terminat	-14.6204
jl	-14.6205
▁42938	-14.6206
▁41675	-14.6206
ninf	-14.6208
▁41561	-14.6208
▁40927	-14.6211
0062	-14.6213
▁42106	-14.6215
cccd	-14.6221
▁40287	-14.6223
▁acs	-14.6223
▁createst	-14.6227
▁272	-14.6228
▁45532	-14.6229
desc	-14.6232
▁doconstrain	-14.6234
setlayeredwind	-14.6234
▁42137	-14.6234
▁tossnan	-14.6235
history	-14.6235
gment	-14.6235
▁40320	-14.6235
errvar	-14.6237
▁afxoleunlocka	-14.6239
▁tidtcpserver	-14.6239
npbdpa	-14.6241
uri	-14.6243
▁42584	-14.6246
▁43538	-14.6251
▁shellexecuteex	-14.6253
▁qaehhpbdh	-14.6254
▁41066	-14.6255
versi	-14.6255
▁42500	-14.6256
▁uaehpbd	-14.6256
▁getmm	-14.6256
▁45326	-14.6261
szclass	-14.6262
▁getsystemtime	-14.6264
▁45910	-14.6266
▁40356	-14.6269
▁46776	-14.627
ot	-14.6273
▁43723	-14.6276
2164	-14.6278
activatei	-14.6279
▁yap	-14.6279
▁aoptions	-14.6281
png	-14.6282
▁42359	-14.6283
unt	-14.6285
▁aldr	-14.6288
automa	-14.6292
▁41547	-14.6294
9368	-14.6294
▁43653	-14.6296
▁46772	-14.6297
▁yajpeau	-14.6297
wsaf	-14.63
▁2800	-14.6304
▁40645	-14.6305
▁42988	-14.6307
0536	-14.6308
▁40483	-14.6308
07776	-14.6311
▁gdiplus	-14.6311
▁40553	-14.6312
▁44387	-14.6314
toa	-14.632
▁44177	-14.632
ffffbf	-14.6321
ffffdf	-14.6322
▁41705	-14.6322
▁4817	-14.633
▁43089	-14.6331
arr	-14.6332
▁1104	-14.6336
▁tgrid	-14.6336
0154	-14.6336
bfbf	-14.6337
▁40298	-14.634
▁43429	-14.6346
▁checki	-14.6346
identity	-14.6347
▁trectuiui	-14.6352
6828	-14.6353
▁setcontrol	-14.6353
enumproc	-14.6354
edwindow	-14.6356
▁100116	-14.6356
▁40559	-14.6359
▁41886	-14.6362
▁41077	-14.6368
▁uide	-14.6373
▁41906	-14.6375
▁stri	-14.6377
▁41932	-14.638
▁43997	-14.6382
windowproc	-14.6384
▁514	-14.6385
▁42759	-14.6386
▁40475	-14.6391
▁103450	-14.6393
▁41747	-14.6394
▁getclass	-14.6407
imagen	-14.6413
▁45216	-14.6416
▁4957	-14.6416
score	-14.6417
▁41958	-14.6421
▁42825	-14.6422
▁42044	-14.6423
▁yahpbd	-14.6425
ay	-14.6425
53445	-14.6434
aint	-14.6438
aaaaaaa	-14.6442
▁40207	-14.6443
3320	-14.6447
▁41357	-14.6448
▁46110	-14.645
▁43058	-14.6451
20604	-14.6455
compute	-14.6462
▁40996	-14.6463
▁qbexaa	-14.6466
▁42470	-14.6468
▁42373	-14.6469
▁qbei	-14.647
lt	-14.6471
5330	-14.6472
▁40191	-14.6484
freelibrary	-14.6485
▁43038	-14.6485
▁43547	-14.6485
▁42986	-14.6486
▁41610	-14.6489
▁40396	-14.6491
▁41046	-14.6495
script	-14.6496
▁41482	-14.65
▁40655	-14.6501
2860	-14.6502
▁42019	-14.6502
▁4893	-14.6504
▁41207	-14.6505
oenable	-14.6508
setsockopt	-14.6508
▁41797	-14.6511
kpav	-14.6512
▁42996	-14.6513
rterr	-14.6513
▁40440	-14.6515
▁40431	-14.6516
▁41563	-14.6517
▁44759	-14.6517
lastactive	-14.6519
symbol	-14.652
▁44135	-14.652
findrep	-14.652
qualifi	-14.652
▁adelphi	-14.652
▁amsshelldlg	-14.652
controlofs	-14.652
dispose	-14.652
▁arunas	-14.652
csidl	-14.6521
popupcontrol	-14.6521
conversi	-14.6521
▁ayy	-14.6521
propertychange	-14.6522
0030102	-14.6522
▁destroycursor	-14.6522
▁aafx	-14.6523
varbstrfromdat	-14.6523
▁aexp	-14.6523
▁szhelp	-14.6524
▁43399	-14.6524
xole	-14.6525
▁105514	-14.6525
▁40908	-14.6526
▁41851	-14.6526
▁45372	-14.653
▁alayout	-14.6533
▁41577	-14.6534
▁writem	-14.6535
▁1021	-14.6538
▁41611	-14.6539
▁41068	-14.654
▁41683	-14.6541
▁140028	-14.6543
closethemedata	-14.6546
▁41714	-14.6548
▁40750	-14.6556
▁41707	-14.6558
pai	-14.6558
bidi	-14.6562
▁4806	-14.6562
▁kpau	-14.6563
▁46918	-14.6568
▁1400619	-14.657
ahpaut	-14.6572
▁40242	-14.6576
▁43062	-14.6579
▁40846	-14.6584
pon	-14.6584
headers	-14.6584
▁235	-14.6586
▁46331	-14.6587
▁41860	-14.6587
▁43758	-14.6587
tshortcut	-14.6588
▁tcom	-14.6593
▁42841	-14.6594
fffffbd	-14.6594
▁qaepadi	-14.6598
▁40852	-14.6598
▁40328	-14.6599
▁140064	-14.6599
aaaaa	-14.6606
dlgbutton	-14.6608
04070	-14.661
▁4822	-14.661
▁46310	-14.661
▁sgx	-14.6611
retry	-14.6612
▁100081	-14.6616
▁40177	-14.6617
▁41806	-14.6623
6519	-14.6625
▁44125	-14.6627
parser	-14.663
▁varianti	-14.6634
▁43735	-14.6634
▁40792	-14.6636
▁3542	-14.6637
6908	-14.6639
▁41999	-14.6644
▁44817	-14.6646
▁timeptr	-14.6647
▁an	-14.6651
▁871	-14.6651
▁100255	-14.6654
▁41067	-14.6661
001004	-14.6662
urlpath	-14.6662
raw	-14.6663
7404	-14.6667
▁lpszuser	-14.6667
6455	-14.6668
▁1016	-14.6672
▁40734	-14.6675
▁cur	-14.6676
▁46939	-14.6677
▁41492	-14.6677
▁42362	-14.6689
▁40744	-14.6691
▁41539	-14.6693
▁1400184	-14.6699
▁41743	-14.6699
▁40198	-14.6701
▁41609	-14.6702
tval	-14.6702
▁42333	-14.6703
whe	-14.6706
fffffbb	-14.6708
▁setstretch	-14.671
▁41427	-14.6716
▁49486	-14.6719
▁41540	-14.6721
▁4823	-14.6721
ipv	-14.6722
▁40894	-14.6725
entop	-14.6725
▁filesystem	-14.6727
▁41033	-14.6727
▁40512	-14.6731
▁42446	-14.6731
▁10342	-14.6731
▁41617	-14.6735
▁loadfrom	-14.6746
▁41607	-14.6747
▁49421	-14.6748
▁iid	-14.6749
▁41927	-14.6752
tons	-14.6756
▁40321	-14.6758
▁43099	-14.6759
000011	-14.6762
▁41779	-14.6764
▁42797	-14.6767
▁41853	-14.6767
9588	-14.6768
initializeflat	-14.6769
▁41527	-14.6771
▁41568	-14.6771
▁100109	-14.6771
▁41460	-14.6774
▁42021	-14.6775
▁getparameter	-14.6775
▁41571	-14.6777
norm	-14.6777
▁41680	-14.6777
profile	-14.6779
▁40834	-14.6782
etpos	-14.6784
▁40753	-14.6785
basetype	-14.6785
▁41484	-14.6786
▁40634	-14.6786
▁40219	-14.679
▁906	-14.6793
▁pbdh	-14.6796
01890	-14.6797
▁41012	-14.6799
1640	-14.6803
▁40386	-14.6803
▁41603	-14.6809
▁232	-14.6809
pcui	-14.681
getdiskfreespa	-14.6812
▁40548	-14.6813
sibility	-14.6813
constrain	-14.6813
▁afalse	-14.6814
suppor	-14.6814
fixstr	-14.6814
micros	-14.6814
showscro	-14.6814
▁concat	-14.6814
▁traitsiceee	-14.6814
alphablend	-14.6814
attrib	-14.6815
enablesc	-14.6815
▁idhttp	-14.6815
▁afpu	-14.6815
cotaskmem	-14.6816
▁43069	-14.6818
initializefl	-14.6819
▁getshort	-14.682
lprotect	-14.6823
xfilter	-14.6824
▁lcid	-14.6825
verb	-14.6826
feda	-14.683
1008	-14.683
▁41164	-14.6831
▁40568	-14.6832
▁41472	-14.6832
▁42917	-14.6833
▁doe	-14.6835
▁40872	-14.6837
▁42788	-14.6837
▁41179	-14.6837
▁47554	-14.684
000018	-14.6841
fffffba	-14.6846
▁createprocessw	-14.6848
2184	-14.6851
▁41174	-14.6853
▁43670	-14.6853
▁46985	-14.6859
▁40180	-14.6862
0128	-14.6864
▁140055	-14.6867
▁5001000	-14.6868
1278	-14.6871
▁peau	-14.6872
1360	-14.6877
▁atladd	-14.6877
▁42606	-14.688
▁40183	-14.6885
▁2208	-14.6885
▁43507	-14.6885
▁41582	-14.689
▁41769	-14.689
dead	-14.6891
▁41483	-14.6893
▁46597	-14.6896
▁100072	-14.6899
meta	-14.69
dwitem	-14.6905
▁48147	-14.6906
▁41708	-14.6908
2214	-14.6908
▁sahpav	-14.691
ount	-14.6911
▁45219	-14.6914
▁44215	-14.6916
▁pdec	-14.6919
▁2061	-14.6919
▁41433	-14.6919
6629	-14.6923
bbbb	-14.6924
amdi	-14.6932
▁45719	-14.6932
▁41023	-14.6934
▁42076	-14.6935
edittext	-14.6935
▁43912	-14.6937
▁42319	-14.6937
▁41588	-14.6939
65746	-14.6942
▁47931	-14.6945
▁40366	-14.6946
▁42418	-14.6946
▁197	-14.6949
ro	-14.6949
▁43729	-14.6952
▁yahpeb	-14.6955
▁qqrirx	-14.6956
▁42565	-14.6961
▁140083	-14.6961
▁42962	-14.6962
▁100074	-14.6962
▁41935	-14.6963
▁46041	-14.6965
hide	-14.6966
aedd	-14.6973
▁42878	-14.6974
▁qbexaavc	-14.6979
▁41885	-14.6979
▁140093	-14.6981
▁41915	-14.6985
▁1400606	-14.6989
▁40152	-14.6994
4339	-14.6998
▁getdom	-14.7
▁100034	-14.7004
▁42170	-14.7006
charalphanumeric	-14.7007
▁40498	-14.7007
alloca	-14.7007
ceda	-14.7012
▁40516	-14.7013
▁41558	-14.7015
9001	-14.7019
getlocaleinfoe	-14.7021
6428	-14.7024
ebcb	-14.7024
▁validat	-14.7033
▁parser	-14.7036
▁ww	-14.704
▁41990	-14.7041
▁43636	-14.7041
▁41015	-14.7046
adjust	-14.7046
▁42519	-14.7048
▁40503	-14.705
▁44539	-14.7053
▁41763	-14.7056
▁wcsc	-14.7058
7294	-14.7059
▁43835	-14.7059
▁45655	-14.706
01299	-14.706
▁40711	-14.7061
▁42386	-14.7062
▁46445	-14.7062
▁40597	-14.7063
▁40743	-14.7066
▁40154	-14.7069
▁40895	-14.7077
4380	-14.7079
domvendor	-14.7079
▁100310	-14.7083
▁40145	-14.7084
▁41789	-14.7088
uiactiv	-14.7089
▁43006	-14.7091
▁40815	-14.7091
1298	-14.7095
▁40223	-14.7095
▁41917	-14.7096
papad	-14.7101
▁43869	-14.7103
▁41347	-14.7104
▁42447	-14.7105
recent	-14.7107
▁46138	-14.7107
▁41340	-14.7108
compare	-14.7109
▁sapb	-14.711
▁41810	-14.711
▁42733	-14.7112
▁10095	-14.7112
engine	-14.7112
▁44435	-14.7112
▁46596	-14.7114
▁pstrnc	-14.7115
bead	-14.7115
▁41767	-14.7115
▁42874	-14.7116
ndow	-14.7117
precedingwi	-14.7117
▁createhardlink	-14.7118
▁txmlprologitem	-14.7118
▁vbalsetfixstr	-14.7118
hbrowseforfolder	-14.7118
▁ischarlower	-14.7118
getdays	-14.7118
▁atrue	-14.7118
getmonths	-14.7119
dispmap	-14.7119
largeint	-14.7119
enable	-14.7119
icker	-14.712
▁sethor	-14.7122
mmmm	-14.7123
fbdc	-14.7124
▁sput	-14.7124
▁41402	-14.7124
▁gettrack	-14.7125
07893	-14.7128
▁sam	-14.7129
cmini	-14.7129
▁41105	-14.713
provider	-14.7133
▁arichedit	-14.7138
▁45536	-14.7138
▁44403	-14.7138
gettext	-14.7142
▁hqbd	-14.7144
▁40688	-14.7146
▁4920	-14.7147
obuf	-14.7149
▁43687	-14.7151
▁45627	-14.7152
1104	-14.7154
▁1400602	-14.7157
▁44446	-14.716
▁43526	-14.7161
▁qbehi	-14.7162
▁41399	-14.7164
ig	-14.7168
▁abase	-14.717
▁100313	-14.7175
7040	-14.7183
bfdd	-14.7184
▁42339	-14.7186
pavcole	-14.7187
▁41813	-14.7188
▁42094	-14.7189
▁40270	-14.719
▁1400157	-14.719
▁42383	-14.7193
bbdd	-14.7193
▁44211	-14.7194
▁45135	-14.7196
▁46390	-14.7197
▁44019	-14.7198
beep	-14.7199
▁package	-14.7201
▁42871	-14.7201
▁140078	-14.7205
▁42558	-14.7205
tanchor	-14.7207
▁41971	-14.7208
▁40614	-14.7209
▁41420	-14.7211
▁42201	-14.7212
47880	-14.7215
▁athe	-14.7215
▁1659	-14.7217
06188	-14.7218
▁41026	-14.7227
▁44494	-14.7231
▁41076	-14.7231
▁42005	-14.7233
▁375	-14.7235
▁40047	-14.7236
▁41236	-14.7236
▁48261	-14.7237
oem	-14.7238
▁vartostr	-14.7241
cedd	-14.7242
cprint	-14.7242
▁41656	-14.7243
▁42268	-14.7245
▁41616	-14.7251
stringfrom	-14.7253
▁4808	-14.7256
2510	-14.7257
▁43149	-14.7259
▁42381	-14.726
▁43546	-14.726
ffed	-14.726
▁41957	-14.7269
xpbutag	-14.727
▁qbexaav	-14.7273
▁41038	-14.7274
psrc	-14.7275
ong	-14.7279
▁140042	-14.7283
▁41463	-14.7283
▁40157	-14.7284
resourcename	-14.7286
▁44048	-14.7288
▁41620	-14.7288
▁44471	-14.7291
▁41996	-14.7291
eefa	-14.7292
▁40271	-14.73
▁2030	-14.7304
bfee	-14.7305
▁41888	-14.7314
▁41733	-14.7317
▁41498	-14.7318
▁40405	-14.7321
▁42769	-14.7324
▁cpt	-14.7325
papav	-14.7326
▁setdrop	-14.7328
▁41048	-14.7329
1774	-14.7335
aterect	-14.7335
▁49389	-14.7336
▁41150	-14.7339
▁45936	-14.7341
▁41992	-14.7343
06500	-14.7345
▁41169	-14.735
▁140062	-14.7351
irx	-14.7354
▁42219	-14.7358
commdlg	-14.7358
▁setpe	-14.7359
▁42098	-14.7362
▁41495	-14.7365
▁unload	-14.7365
▁42836	-14.7365
▁43540	-14.7367
▁43765	-14.737
▁acommon	-14.7371
prolog	-14.7372
getformat	-14.7376
ihpax	-14.7378
▁1303	-14.7379
▁43001	-14.7381
▁1400031	-14.7387
▁100055	-14.739
▁41875	-14.7392
▁43574	-14.7396
▁4824	-14.7397
▁43976	-14.7398
white	-14.7398
▁44981	-14.7401
them	-14.7401
▁44642	-14.7402
ki	-14.7402
▁asetthread	-14.7403
▁42198	-14.7406
▁1085	-14.7407
▁44313	-14.7409
componen	-14.7411
▁100133	-14.7414
fieldby	-14.7416
▁837	-14.7416
aadc	-14.7417
regkey	-14.7417
▁41070	-14.742
▁41629	-14.7421
switch	-14.7421
offile	-14.7422
started	-14.7423
▁41198	-14.7423
▁getstring	-14.7424
backg	-14.7427
▁40459	-14.7428
expanded	-14.7429
docume	-14.743
▁getactualres	-14.743
▁ldexp	-14.743
▁xmmmovsmall	-14.743
▁yahqadih	-14.743
▁tidcoder	-14.743
▁iaehpavc	-14.743
rty	-14.7431
dragcursor	-14.7431
▁ajump	-14.7431
ship	-14.7432
▁42297	-14.7433
▁invokehelp	-14.7435
usw	-14.7437
tdesigner	-14.7438
bebf	-14.7438
▁iaexhp	-14.7439
▁40306	-14.7442
▁41227	-14.7444
▁aj	-14.7445
▁setstrings	-14.7447
6581	-14.7449
thunk	-14.745
▁pmxlc	-14.7451
▁40604	-14.7455
changeset	-14.7456
ucuc	-14.7461
▁42380	-14.7463
ampin	-14.7465
ibex	-14.7467
▁42073	-14.7469
bbac	-14.7469
▁41093	-14.7469
▁1229	-14.7473
▁yai	-14.7475
▁40633	-14.7475
▁46385	-14.7479
monitorfromwind	-14.7479
▁43259	-14.748
▁41203	-14.748
▁directory	-14.7482
tinteger	-14.7485
▁41432	-14.7488
▁100125	-14.7489
▁49423	-14.7491
▁asds	-14.7492
expand	-14.7492
▁44138	-14.7493
▁prefix	-14.7495
lid	-14.7498
▁40838	-14.7498
▁43269	-14.7499
▁40452	-14.7502
▁42034	-14.7502
▁41309	-14.7502
▁hpa	-14.7505
▁46675	-14.7506
▁qbex	-14.7507
calc	-14.751
▁40477	-14.7512
▁40471	-14.7518
hpav	-14.7519
▁46968	-14.7519
▁42603	-14.752
9863	-14.7522
encoding	-14.7523
lu	-14.7524
▁47838	-14.7527
2720	-14.7531
▁41956	-14.7531
▁41756	-14.7534
▁10090	-14.7536
6440	-14.7538
▁wwin	-14.7538
▁40920	-14.754
▁41419	-14.7542
▁tcustomcombobox	-14.7546
mt	-14.7558
isze	-14.7559
▁43778	-14.7561
▁45636	-14.7564
▁42553	-14.7565
▁40615	-14.7565
6281	-14.7566
▁44836	-14.7569
6705	-14.7571
▁41500	-14.7574
▁46791	-14.7575
▁aclass	-14.7575
4622	-14.7575
▁42999	-14.7577
▁45185	-14.7582
▁aexit	-14.7587
ffcffff	-14.7587
▁42035	-14.7587
▁afile	-14.759
▁44913	-14.759
▁41092	-14.7591
▁140088	-14.7591
▁40509	-14.7592
▁41795	-14.7593
▁athis	-14.7594
▁tnode	-14.7597
▁44058	-14.76
▁40754	-14.7606
▁42347	-14.7608
▁42866	-14.7608
▁45894	-14.7611
▁41961	-14.7613
▁40156	-14.7614
▁48368	-14.7617
▁qqruiiui	-14.7619
webpage	-14.7621
▁100218	-14.7623
▁41344	-14.7632
▁46052	-14.7634
▁44467	-14.7635
▁aadva	-14.7638
ids	-14.764
▁42677	-14.7642
▁40960	-14.7642
befc	-14.7643
▁41717	-14.7643
▁16814	-14.7644
▁41953	-14.7647
nextw	-14.7649
▁41478	-14.765
▁environ	-14.7651
1094	-14.7651
▁42744	-14.7652
bdaf	-14.7654
▁40659	-14.7655
▁aguiget	-14.7657
▁40624	-14.7657
▁43756	-14.7658
▁43985	-14.7659
▁41963	-14.7662
▁42353	-14.7669
▁49561	-14.7671
▁43836	-14.7672
▁afra	-14.7673
▁41884	-14.7676
andis	-14.768
1560	-14.768
paxkk	-14.768
37871	-14.7684
▁42768	-14.7686
▁41194	-14.7686
▁46569	-14.7686
▁41325	-14.7687
▁42750	-14.7688
▁46078	-14.7689
▁45338	-14.7691
1408	-14.7695
▁43853	-14.7697
▁checkmenu	-14.7699
▁40635	-14.7701
▁41528	-14.7702
▁42795	-14.7704
eacf	-14.7704
▁41759	-14.7714
▁869	-14.7717
▁48476	-14.7721
▁40735	-14.7725
▁41869	-14.7726
▁42886	-14.7727
▁46978	-14.7731
▁1054	-14.7737
▁41554	-14.7739
▁41110	-14.774
▁3547	-14.7741
▁40240	-14.7743
paren	-14.7744
▁42097	-14.7745
checklist	-14.7746
dfromstring	-14.7748
▁44910	-14.775
ihelp	-14.7752
▁100098	-14.7752
▁ztist	-14.7753
variantchanget	-14.7753
▁taskproc	-14.7753
▁getdockedco	-14.7753
good	-14.7753
▁getptrref	-14.7753
filena	-14.7753
createsymbol	-14.7753
backgro	-14.7754
▁40436	-14.7756
rcimage	-14.7756
themeba	-14.7758
avarmo	-14.7759
▁npbu	-14.7762
▁astop	-14.7762
▁41476	-14.7763
▁43903	-14.7763
▁ascript	-14.7765
avarcmp	-14.777
▁46217	-14.777
istrings	-14.7772
ffffeef	-14.7775
▁40430	-14.7776
enumva	-14.7777
▁40201	-14.7778
▁48576	-14.7782
▁40108	-14.7786
▁gdip	-14.7786
▁40563	-14.7789
▁setbutton	-14.7789
▁45752	-14.779
▁41943	-14.7794
▁40606	-14.7796
▁46923	-14.7798
▁tdatetimex	-14.7803
▁42588	-14.7803
▁41342	-14.7804
▁42541	-14.7805
dialogt	-14.7806
lpreserved	-14.7816
▁41689	-14.7816
▁40289	-14.7817
▁40972	-14.7821
▁4841	-14.7825
▁changebi	-14.7826
▁hpbd	-14.783
▁40523	-14.7831
eurl	-14.7832
▁40333	-14.7834
beba	-14.7838
wdest	-14.7841
▁41332	-14.7841
als	-14.7842
▁45079	-14.7844
eacc	-14.7845
▁100187	-14.7845
▁42234	-14.785
02783	-14.785
▁44898	-14.7853
sock	-14.7854
▁acrypt	-14.7859
▁43828	-14.7859
tcombo	-14.786
▁41800	-14.7863
▁42391	-14.7863
▁44366	-14.7864
▁41572	-14.7864
safearray	-14.7868
▁42460	-14.7871
▁41395	-14.7877
andn	-14.7879
▁373	-14.7879
▁40805	-14.788
▁4809	-14.7881
▁777	-14.7887
▁42310	-14.7897
cache	-14.7898
▁100140	-14.7898
▁42667	-14.7905
setproxy	-14.791
ered	-14.7912
▁40910	-14.7912
9908	-14.7915
▁vmovdq	-14.7916
▁41959	-14.7917
▁41467	-14.7918
▁41590	-14.7921
▁43814	-14.7925
▁40346	-14.7927
▁4942	-14.7932
▁40300	-14.7934
▁140071	-14.7935
▁41557	-14.7937
▁40788	-14.7939
▁45665	-14.794
▁40256	-14.7941
▁46702	-14.7941
▁41439	-14.7941
▁41339	-14.7942
▁100406	-14.7942
fffffdb	-14.7943
ullavail	-14.7943
ulltotal	-14.7943
unpackfilter	-14.7943
▁893	-14.7944
▁40448	-14.7945
▁42895	-14.7947
▁40155	-14.7948
▁41827	-14.7948
0002	-14.7949
3318	-14.7952
▁40196	-14.7952
▁100028	-14.7954
▁44443	-14.7955
▁100073	-14.7958
▁49785	-14.7958
▁140085	-14.796
▁45232	-14.7962
▁42839	-14.7964
▁43982	-14.7968
▁40317	-14.797
▁41784	-14.7971
7298	-14.7973
▁140004	-14.7975
▁41621	-14.7975
▁43693	-14.7978
▁42642	-14.798
▁48385	-14.7984
4625	-14.7985
2248	-14.7985
▁48561	-14.7985
current	-14.7989
9399	-14.7989
beae	-14.799
6820	-14.7991
▁41173	-14.7996
▁41124	-14.7998
▁amsc	-14.7999
▁aproxy	-14.8002
6660	-14.8002
▁1400456	-14.8003
▁42569	-14.8005
▁4798	-14.8009
▁install	-14.801
▁44390	-14.801
do	-14.801
▁42085	-14.8014
▁41637	-14.8015
▁42009	-14.8017
▁42448	-14.802
▁4870	-14.8021
▁43807	-14.8024
▁44197	-14.8024
▁3540	-14.803
▁41013	-14.803
▁addform	-14.8031
▁100144	-14.8032
▁40598	-14.8035
▁14001165	-14.8035
▁43373	-14.8039
▁48850	-14.8041
effc	-14.8045
▁42172	-14.8049
▁setconsole	-14.8049
▁40641	-14.8049
▁41328	-14.805
41018	-14.805
▁911	-14.8052
▁41692	-14.8052
▁46132	-14.8054
▁44370	-14.8054
▁42615	-14.8055
▁40342	-14.8057
varlatememcallld	-14.8062
blob	-14.8063
▁40208	-14.8065
2190	-14.8067
▁42507	-14.8067
▁44974	-14.8068
▁41768	-14.8074
agreen	-14.8075
▁41555	-14.8075
▁45931	-14.8075
▁40897	-14.808
▁45353	-14.808
400080	-14.8082
▁42870	-14.8084
cgopher	-14.8086
accessibleobject	-14.8086
▁ahangeul	-14.8086
▁athreed	-14.8086
▁yapagpbdpag	-14.8086
slider	-14.8086
outofrange	-14.8086
dialogunits	-14.8086
srwlock	-14.8087
▁41816	-14.8087
▁4883	-14.8087
▁tddeserver	-14.8087
▁42708	-14.8088
artowide	-14.8088
▁drawin	-14.8088
▁kaip	-14.8089
▁waitfor	-14.8089
▁40998	-14.8091
authentication	-14.8092
▁twincontrolo	-14.8093
▁alights	-14.8093
▁getusername	-14.8095
inifile	-14.8096
▁tfieldtype	-14.8097
▁getchildnode	-14.8098
▁44329	-14.8099
▁42978	-14.8099
▁41292	-14.8101
▁42303	-14.8101
▁40277	-14.8101
dautosubclass	-14.8102
mw	-14.8107
▁41654	-14.8107
eau	-14.811
▁40564	-14.811
▁3537	-14.8111
5326	-14.8113
▁40268	-14.8119
▁40403	-14.8119
▁thr	-14.8122
▁42545	-14.8123
▁41573	-14.8128
▁41549	-14.8128
▁41406	-14.8129
1058	-14.8129
▁873	-14.813
▁1658	-14.8131
▁45064	-14.8132
▁45907	-14.8132
▁40925	-14.8134
▁4882	-14.8135
▁4891	-14.814
▁47762	-14.8141
kpbutag	-14.8143
▁42555	-14.8144
▁41273	-14.8148
▁3543	-14.8153
▁42474	-14.8156
▁kh	-14.8165
▁42577	-14.8167
▁41251	-14.8168
7400	-14.8171
rproxy	-14.8178
daddr	-14.8179
tfilter	-14.8181
▁42002	-14.8182
▁40636	-14.8182
▁42513	-14.8185
▁41972	-14.8188
▁mid	-14.8188
▁48388	-14.819
▁pr	-14.819
olefont	-14.819
▁uf	-14.8192
▁42057	-14.8192
nmin	-14.8193
ctemp	-14.8198
▁getsecurity	-14.82
10108	-14.8202
▁41303	-14.8203
▁40973	-14.8203
▁42578	-14.8204
▁42016	-14.8208
▁40549	-14.821
▁46377	-14.821
pbdaa	-14.8211
angle	-14.8212
dsubclassctl	-14.8213
▁45295	-14.8214
▁pavschedule	-14.8215
▁46099	-14.8216
▁47743	-14.8216
assi	-14.8219
▁45999	-14.8225
▁40728	-14.8226
▁putc	-14.8227
▁40263	-14.823
▁design	-14.823
▁43949	-14.8231
▁40567	-14.8232
findex	-14.8232
▁40492	-14.8233
▁140069	-14.8233
▁103475	-14.8234
48253	-14.8238
▁44801	-14.8241
▁41355	-14.8241
1054	-14.8243
▁48268	-14.8248
▁1000792	-14.825
▁41863	-14.8251
▁42509	-14.8252
▁41250	-14.8252
▁cal	-14.8253
▁42467	-14.8255
▁ahttp	-14.8257
▁41602	-14.8257
▁42147	-14.8258
48760	-14.8259
▁42433	-14.8262
▁43539	-14.8273
▁41879	-14.8279
▁41086	-14.828
bbaa	-14.828
aace	-14.8282
▁43812	-14.8283
▁40349	-14.8283
▁41564	-14.8287
▁43863	-14.8287
▁ayouhave	-14.8289
▁41745	-14.8291
▁44408	-14.8291
▁43770	-14.8291
▁100104	-14.8293
bddf	-14.8297
▁aup	-14.8297
filesystemname	-14.8298
attr	-14.8299
▁42613	-14.8302
▁43072	-14.8304
▁40316	-14.8305
▁46005	-14.8308
▁42209	-14.8309
▁42516	-14.831
▁43384	-14.831
▁40885	-14.8312
▁42568	-14.8313
▁41475	-14.8314
6192	-14.8314
▁4876	-14.8316
replace	-14.8317
4721	-14.8317
6625	-14.832
▁43865	-14.8321
1157	-14.8323
▁41098	-14.8325
▁40279	-14.8327
▁40449	-14.8333
1018	-14.8335
▁41371	-14.8337
▁40651	-14.8337
▁getprofile	-14.8338
▁40987	-14.8338
02956	-14.834
▁44086	-14.8342
▁42247	-14.8342
▁42120	-14.8343
▁46901	-14.8343
getdateformate	-14.8343
timeto	-14.8344
▁40280	-14.8345
▁42945	-14.8348
▁42052	-14.8349
fby	-14.835
▁100012	-14.8351
▁42523	-14.8352
▁100076	-14.8356
▁46707	-14.8356
▁41128	-14.8357
▁40798	-14.8358
apau	-14.8362
▁45963	-14.8363
▁43549	-14.8363
▁42404	-14.8364
▁40444	-14.8364
aced	-14.8365
▁42536	-14.8366
papau	-14.8366
▁40765	-14.8366
44230	-14.837
▁43922	-14.8372
▁46593	-14.8376
▁1400404	-14.8378
▁41754	-14.8379
▁100067	-14.8379
▁43587	-14.8383
eg	-14.8388
accept	-14.8393
1600	-14.8394
▁40454	-14.8397
▁42275	-14.8399
▁42155	-14.84
▁stringto	-14.8401
▁41688	-14.8401
2290	-14.8401
▁41115	-14.8402
30001	-14.8404
▁43913	-14.841
ttool	-14.8411
▁twincontrolr	-14.8411
▁40592	-14.8412
▁40722	-14.8414
▁4925	-14.8417
sendmessage	-14.8419
▁ihp	-14.8419
blank	-14.842
▁41706	-14.8421
▁41987	-14.8421
▁40254	-14.8425
▁40426	-14.8425
phys	-14.8426
comboboxex	-14.8427
▁42905	-14.8428
▁45291	-14.8428
▁41524	-14.8429
▁42028	-14.843
▁ahttpwww	-14.8431
▁aserverrefused	-14.8431
video	-14.8431
▁aerroropening	-14.8431
▁athu	-14.8431
walk	-14.8431
▁setpane	-14.8431
indent	-14.8432
▁wikp	-14.8432
▁1770	-14.8432
▁46468	-14.8432
notan	-14.8432
dsof	-14.8433
▁43959	-14.8433
hflag	-14.8434
▁43169	-14.8434
▁41702	-14.8435
▁40315	-14.8435
raise	-14.8435
ary	-14.8437
isequal	-14.8437
rg	-14.8438
▁140096	-14.8439
▁41099	-14.8441
▁ainet	-14.8441
▁40924	-14.8443
▁41983	-14.8443
1010	-14.8445
▁paintwindow	-14.8446
mbsdec	-14.8447
eronpo	-14.8447
▁ttab	-14.8451
▁462900	-14.8452
▁42286	-14.8453
net	-14.8453
ldrf	-14.8457
▁41826	-14.8459
▁40482	-14.8459
▁140047	-14.8461
▁806	-14.8462
▁41565	-14.8462
ccontrol	-14.8463
▁100108	-14.8464
▁800700	-14.8464
▁stl	-14.8465
disabled	-14.8465
setun	-14.8465
55797	-14.8465
cidtolocalena	-14.8466
59083	-14.8471
▁42368	-14.8471
▁43070	-14.8472
▁acos	-14.8474
▁41766	-14.8474
▁45896	-14.8476
46318	-14.8477
▁46724	-14.8477
bfcb	-14.8477
▁44216	-14.8487
▁40383	-14.8488
▁41847	-14.8488
▁bmp	-14.8494
▁46925	-14.8494
▁41338	-14.8496
0026	-14.8498
▁42366	-14.8498
▁40455	-14.8499
▁45856	-14.8505
▁44705	-14.8506
▁44386	-14.8508
getstream	-14.8509
mstyle	-14.8509
▁42935	-14.8509
signopt	-14.8513
▁42071	-14.8516
4550	-14.8516
6937	-14.8517
▁41685	-14.852
▁43438	-14.8522
igret	-14.8524
▁42965	-14.8525
56595	-14.8532
▁42422	-14.8532
processaffinity	-14.8539
▁41738	-14.8541
aapax	-14.8541
▁41343	-14.8542
▁41556	-14.8547
▁48120	-14.855
▁setthread	-14.8551
▁getdialog	-14.8558
▁acmdline	-14.8561
▁140031	-14.8562
▁41699	-14.8563
▁unicodestring	-14.8568
▁41219	-14.8568
▁41598	-14.8569
▁41393	-14.8573
▁140091	-14.8579
▁42868	-14.8584
▁41469	-14.8584
▁45184	-14.859
ecurrent	-14.859
▁100097	-14.859
2100	-14.8591
getspecialfolder	-14.86
localenametolc	-14.8601
▁41799	-14.8602
alic	-14.8604
▁40824	-14.8604
▁even	-14.8605
▁40329	-14.8605
▁aclip	-14.8609
▁41776	-14.861
▁40205	-14.8612
▁45065	-14.8614
▁44806	-14.8618
▁44748	-14.8625
▁42862	-14.8628
▁44940	-14.8631
wflags	-14.8632
▁42726	-14.8634
▁45803	-14.8637
▁pack	-14.8639
threadattributes	-14.8639
▁40891	-14.864
kv	-14.8645
▁44758	-14.8645
▁1400017	-14.8649
▁45051	-14.865
now	-14.8651
badb	-14.8652
▁40351	-14.8652
▁831	-14.8653
dpa	-14.8659
▁45477	-14.8659
▁abqav	-14.8659
▁47317	-14.866
▁42718	-14.8661
▁43366	-14.8661
▁40686	-14.8661
▁48145	-14.8662
▁43138	-14.8662
nw	-14.8663
preview	-14.8663
▁42065	-14.8665
▁42597	-14.8665
7711	-14.8671
▁qeaapeau	-14.8673
▁48474	-14.8676
▁40266	-14.8676
pbdpbd	-14.868
▁wc	-14.8682
▁46758	-14.8682
▁42979	-14.8683
createsemaphor	-14.8689
▁40409	-14.869
▁100124	-14.8691
▁sapadpad	-14.8692
▁45430	-14.8696
▁41703	-14.8699
▁100347	-14.8713
▁42068	-14.8714
priv	-14.8714
▁42567	-14.8717
▁41674	-14.8718
▁49363	-14.8718
▁43968	-14.8719
024202	-14.8719
▁48392	-14.8721
▁43689	-14.8722
1644	-14.8724
▁40357	-14.8727
▁41398	-14.8731
▁aenumdisplay	-14.8732
▁46220	-14.8734
4208	-14.8735
▁41091	-14.8738
▁45308	-14.8741
▁41142	-14.8743
▁49585	-14.8746
▁5000000	-14.8746
▁rand	-14.8748
▁44002	-14.875
▁42060	-14.8751
scape	-14.8752
▁4956	-14.8755
▁aadd	-14.8755
▁42117	-14.8755
actctx	-14.8756
▁lpto	-14.8757
▁43824	-14.8758
▁42067	-14.8759
▁48631	-14.876
▁49469	-14.8762
▁getenum	-14.8763
▁45345	-14.8772
verify	-14.8773
▁45634	-14.8774
▁41630	-14.8775
nate	-14.8777
▁4929	-14.8779
▁4924	-14.8781
enumsystemloca	-14.8782
iaccessible	-14.8786
▁41348	-14.8786
▁43130	-14.8787
isvalidlocalen	-14.8787
▁dwres	-14.8787
quotedprintable	-14.8788
▁httpsendrequest	-14.8788
▁idletime	-14.8788
▁1010101	-14.8788
▁setexpanded	-14.879
▁41107	-14.879
minor	-14.8792
▁srwi	-14.8792
▁qaexabv	-14.8793
▁44636	-14.8793
▁48290	-14.8793
▁qqruiuiui	-14.8794
▁amaximum	-14.8794
▁atrayicon	-14.8798
▁100113	-14.8798
▁100085	-14.8802
xpm	-14.8803
fxp	-14.8807
▁901	-14.8807
just	-14.8807
▁adrive	-14.881
▁42181	-14.8812
▁42160	-14.8813
tlist	-14.8817
bfed	-14.8819
▁45782	-14.882
beee	-14.882
aaaaaa	-14.8821
▁42270	-14.8823
▁48978	-14.8824
▁49674	-14.8826
▁accept	-14.883
▁40730	-14.8831
▁41923	-14.8831
towrite	-14.8835
1990	-14.8836
▁40922	-14.8836
▁40933	-14.8843
pxixi	-14.8845
▁42648	-14.8849
34352	-14.8851
▁40491	-14.8852
▁40188	-14.8853
▁42405	-14.8856
▁ico	-14.8859
7500	-14.8859
▁42267	-14.8861
▁45417	-14.8861
readtransferco	-14.8862
▁44069	-14.8862
▁140041	-14.8863
1290	-14.8865
▁43369	-14.8869
writetransferc	-14.8871
▁44348	-14.8871
▁44732	-14.8872
1330	-14.8873
tokens	-14.8878
▁100183	-14.8881
▁1264	-14.8881
▁42456	-14.8882
▁44402	-14.8884
▁40305	-14.8887
1744	-14.889
▁41417	-14.8892
▁41874	-14.8893
▁1000994	-14.8896
▁findwindowex	-14.8897
▁44651	-14.8898
aapau	-14.8899
▁astringto	-14.8903
ri	-14.8906
▁41945	-14.8907
pm	-14.8912
5430	-14.8914
43535	-14.8918
▁setsystem	-14.892
▁41438	-14.8924
▁42515	-14.8926
ceca	-14.8927
2274	-14.8928
cli	-14.8928
▁100429	-14.8928
5834	-14.8929
▁43363	-14.8932
▁44485	-14.8932
▁45176	-14.8935
▁41861	-14.8938
▁rotl	-14.8938
▁40225	-14.894
▁41653	-14.894
caret	-14.894
itemcount	-14.8944
▁41210	-14.8944
▁2064	-14.8945
2620	-14.8945
▁41160	-14.8946
▁100197	-14.8947
▁40889	-14.8951
36293	-14.8954
▁41866	-14.8957
▁42379	-14.8958
▁43962	-14.8961
▁41725	-14.8966
▁892	-14.897
▁100082	-14.8972
▁40587	-14.8976
▁100371	-14.8981
▁45901	-14.8986
▁43144	-14.8988
▁request	-14.8989
ddbc	-14.8995
▁41624	-14.8997
bbde	-14.9003
▁100123	-14.9004
▁44165	-14.9005
▁42760	-14.9008
▁100341	-14.9009
▁43499	-14.901
bbad	-14.9021
▁1129	-14.9022
▁42299	-14.9025
▁41196	-14.9025
▁44569	-14.9025
▁45725	-14.9032
▁46096	-14.9033
▁41216	-14.9033
▁41507	-14.9037
afef	-14.904
▁42914	-14.9042
▁44933	-14.9043
▁4934	-14.9045
▁10098	-14.9046
▁48103	-14.905
max	-14.9052
▁40966	-14.9053
▁43633	-14.9055
▁42882	-14.9062
▁45784	-14.9062
▁100032	-14.9064
▁41726	-14.9066
ruit	-14.9067
▁42957	-14.907
▁43010	-14.9073
6788	-14.9077
ates	-14.908
▁arequire	-14.9083
▁41870	-14.9089
▁49961	-14.9089
enablecontrol	-14.9092
▁100311	-14.9097
▁41447	-14.9101
▁41178	-14.9101
▁41713	-14.9102
40175	-14.9103
▁45207	-14.9104
▁4976	-14.9109
▁43577	-14.9109
▁40339	-14.911
▁100027	-14.9113
bdff	-14.9115
afeb	-14.9116
buffert	-14.9116
▁44635	-14.9117
▁41793	-14.9118
▁40601	-14.9119
▁45886	-14.9121
47920	-14.9121
▁43018	-14.9125
1234	-14.9126
▁40589	-14.9126
▁45946	-14.9127
▁42184	-14.9127
▁41481	-14.9127
▁42338	-14.9127
▁100019	-14.9128
▁923	-14.9137
▁303	-14.9138
▁43487	-14.9139
bede	-14.9139
▁46124	-14.914
▁43351	-14.9143
dbdc	-14.9145
2174	-14.9146
▁43390	-14.9146
▁43270	-14.9149
▁45849	-14.9149
▁40816	-14.9151
▁40363	-14.9151
▁42783	-14.9152
configure	-14.9157
▁qbexkpautagdb	-14.9158
▁regenumvalue	-14.9158
▁avcrtdbgreport	-14.9158
▁internetconnect	-14.9158
▁aoutofmemory	-14.9158
▁auncheck	-14.9158
na	-14.9159
▁gettextface	-14.9159
▁sgxpax	-14.9159
defau	-14.9159
▁arename	-14.9159
▁asleep	-14.9159
mustbe	-14.916
▁iaehpautag	-14.916
▁yaxqea	-14.9162
▁41775	-14.9163
▁getprolog	-14.9164
allocateand	-14.9164
▁44101	-14.9164
▁wk	-14.9165
▁42197	-14.9165
▁41517	-14.9166
wcsdup	-14.9167
bn	-14.9171
▁42410	-14.9171
▁40580	-14.9171
▁46288	-14.9173
0047	-14.9173
▁40488	-14.9175
▁44702	-14.9175
▁42377	-14.9175
▁npau	-14.9178
▁45075	-14.9183
8128	-14.9189
logon	-14.919
▁44355	-14.919
▁48629	-14.9191
▁1668	-14.9191
▁tab	-14.9192
ag	-14.9193
▁42828	-14.9195
▁40989	-14.9195
▁1094	-14.9198
▁qaehk	-14.9198
▁42228	-14.9199
▁domvendor	-14.9202
▁47277	-14.9202
▁41094	-14.9205
filea	-14.9205
▁40584	-14.9205
▁writestr	-14.9207
▁41749	-14.9207
▁40546	-14.9208
▁40767	-14.9208
▁41195	-14.9211
2824	-14.9212
▁42113	-14.9212
creationtime	-14.9214
▁41512	-14.9215
▁100111	-14.9215
▁41925	-14.9216
▁40819	-14.9216
▁43057	-14.9217
▁44995	-14.9219
▁42590	-14.9221
▁40741	-14.9221
▁aany	-14.9223
▁4878	-14.9224
▁10347	-14.9224
▁41330	-14.9226
3918	-14.9226
▁46765	-14.9229
cccc	-14.923
▁48104	-14.9235
▁46103	-14.9238
▁42661	-14.9238
badc	-14.924
▁41709	-14.924
▁afxinit	-14.9241
▁40620	-14.9242
▁40275	-14.9248
▁46212	-14.9248
6589	-14.9249
1230	-14.925
▁40613	-14.9251
7464	-14.9251
createenvironm	-14.9255
▁45218	-14.9256
▁43977	-14.9257
3274	-14.9257
▁atab	-14.9259
▁40739	-14.9259
▁1124	-14.9262
selectclip	-14.9263
▁1004314	-14.9263
▁40534	-14.9263
▁43967	-14.9263
▁46203	-14.9265
▁140023	-14.9265
▁41862	-14.9267
▁45765	-14.9268
▁43939	-14.9269
▁dwlen	-14.9269
▁40906	-14.9272
▁48466	-14.9274
▁qqriir	-14.9274
▁44442	-14.9275
▁140054	-14.9276
▁44842	-14.9279
▁41833	-14.9283
▁43719	-14.9287
clone	-14.9292
▁44412	-14.9297
▁42763	-14.9297
▁44118	-14.9297
▁47923	-14.9303
▁46922	-14.9303
tctr	-14.9308
▁100129	-14.9311
▁41453	-14.9311
▁5633	-14.9313
▁42225	-14.9318
▁45633	-14.9319
fdfd	-14.932
▁40379	-14.9322
▁44406	-14.9324
▁46572	-14.933
▁45913	-14.9332
▁100298	-14.9339
▁47176	-14.934
▁46125	-14.9342
▁41321	-14.9347
edbf	-14.9348
peau	-14.9349
cwait	-14.935
▁100026	-14.9352
▁45902	-14.9355
expb	-14.936
▁44959	-14.9362
▁42257	-14.9367
pixel	-14.937
▁42483	-14.9371
▁44752	-14.9372
▁47726	-14.9373
▁44389	-14.9373
cebf	-14.9374
▁43155	-14.9374
req	-14.9377
1228	-14.9379
mbit	-14.9379
▁readconsole	-14.938
▁abqb	-14.9382
▁41327	-14.9385
▁41897	-14.9387
▁kax	-14.9387
▁42153	-14.9387
▁40457	-14.9388
▁48427	-14.9388
▁42464	-14.9388
▁42889	-14.9394
46298	-14.9394
▁140082	-14.9394
▁43132	-14.9394
▁41200	-14.9396
▁42378	-14.9396
▁43550	-14.9396
▁44722	-14.9398
▁48269	-14.9399
ado	-14.94
beeb	-14.9403
▁42083	-14.9403
▁47691	-14.9408
01670	-14.9409
▁41676	-14.9409
chcount	-14.941
ipbdi	-14.9419
▁45619	-14.9421
acce	-14.9421
▁100037	-14.9424
▁43284	-14.9425
▁40221	-14.9428
▁80028	-14.943
▁42785	-14.9434
46514	-14.9434
▁40360	-14.9435
▁40674	-14.9436
▁140029	-14.9438
▁43250	-14.9438
▁41960	-14.9439
▁1418	-14.9443
▁41589	-14.9443
▁41434	-14.9443
▁acheck	-14.9443
▁100048	-14.9446
▁45620	-14.9448
▁43442	-14.9455
▁42139	-14.9459
▁45538	-14.9459
sta	-14.9461
▁41465	-14.9465
bshow	-14.9466
▁44274	-14.9467
selected	-14.9467
▁40505	-14.9468
▁44894	-14.9471
▁40416	-14.9473
ail	-14.9478
▁46127	-14.9479
▁41034	-14.9479
▁43293	-14.9479
▁45592	-14.9479
▁46293	-14.948
▁48366	-14.9482
▁qaehihh	-14.9482
▁40732	-14.9482
▁41792	-14.9484
▁43398	-14.9485
bdfd	-14.9485
▁41230	-14.9486
addw	-14.9492
sele	-14.9495
▁41979	-14.9495
▁43847	-14.9501
7470	-14.9501
5468	-14.9505
▁42723	-14.9507
▁41426	-14.9511
▁42397	-14.9514
2298	-14.9515
▁olese	-14.9518
ffbb	-14.9519
45819	-14.9519
▁43745	-14.9521
▁41946	-14.9523
▁41536	-14.9525
▁44687	-14.9526
▁48284	-14.9527
▁42851	-14.9528
total	-14.9531
freebytes	-14.9531
trayicon	-14.9533
▁41939	-14.9534
▁3200	-14.9535
▁43537	-14.9536
▁white	-14.9537
▁43759	-14.9537
qeb	-14.9542
▁peaxpea	-14.9542
depth	-14.9542
shellexecutew	-14.9542
▁aonautoit	-14.9543
▁astringstrip	-14.9543
activateactc	-14.9543
getlogicalproc	-14.9543
▁astringregexp	-14.9543
cryptacquireco	-14.9543
▁asound	-14.9543
waitforthread	-14.9543
▁agetline	-14.9543
▁adrivespace	-14.9543
▁aprocesswait	-14.9543
▁aobjcreate	-14.9543
▁aconsolewrite	-14.9543
▁aautoitwin	-14.9543
▁aonautoitexit	-14.9543
▁aadlib	-14.9543
▁aucp	-14.9543
▁aregdelete	-14.9543
▁ainiwrite	-14.9544
▁adllcall	-14.9544
▁43209	-14.9545
▁qbexhaav	-14.9546
▁42923	-14.9546
▁ahandle	-14.9547
▁gettempfilename	-14.9547
istheme	-14.9547
▁aguictrlsetdef	-14.9548
▁adllstruct	-14.9548
45871	-14.9548
▁anul	-14.9549
fffffdd	-14.9549
▁44223	-14.9549
▁aguictrlsend	-14.9551
eventobj	-14.9552
llog	-14.9554
bdbe	-14.9554
▁pserver	-14.9555
▁43965	-14.9556
beef	-14.9557
ipau	-14.956
▁49482	-14.9561
bebb	-14.9563
▁44610	-14.9564
▁403553	-14.9565
6874	-14.9567
▁mtc	-14.9567
▁140056	-14.9567
▁42000	-14.957
▁41673	-14.9571
▁42557	-14.9572
▁40456	-14.9572
▁qbehpa	-14.9572
▁47518	-14.9573
▁40375	-14.9574
▁qbehh	-14.9577
▁43075	-14.9578
▁2258	-14.9579
▁40199	-14.9579
▁40569	-14.958
▁43559	-14.9583
▁140052	-14.9583
▁45115	-14.9586
▁aremove	-14.9586
▁alimit	-14.9587
mbe	-14.9589
▁getevent	-14.9591
▁aulong	-14.9591
xact	-14.9591
▁44132	-14.9591
tovariant	-14.9593
▁48587	-14.9594
▁adown	-14.9594
▁41790	-14.9594
▁44711	-14.9595
▁42853	-14.9597
▁40851	-14.9597
sel	-14.9598
▁45266	-14.9598
▁100331	-14.9599
2718	-14.9602
▁42216	-14.9602
▁43829	-14.9603
▁43251	-14.9605
utputdebugstring	-14.9605
nstd	-14.9606
▁44249	-14.9607
▁atraycreate	-14.9607
declare	-14.9609
▁41753	-14.9609
▁46446	-14.9609
1764	-14.9611
▁41516	-14.9611
▁40947	-14.9612
▁41276	-14.9613
▁45727	-14.9614
ist	-14.9614
▁42351	-14.9614
▁readpro	-14.9614
▁42075	-14.9615
▁41308	-14.9615
▁45195	-14.9616
▁42159	-14.9617
▁41752	-14.9618
▁44681	-14.9624
stdout	-14.9627
entblock	-14.9628
▁40578	-14.9628
▁48929	-14.9629
▁45315	-14.9633
matchm	-14.9633
abed	-14.9633
▁42304	-14.9635
▁42663	-14.9637
▁45760	-14.9637
▁45030	-14.9637
1250	-14.9639
▁41304	-14.9641
ffbccc	-14.9643
▁42392	-14.9643
▁42727	-14.9645
getcurrentproc	-14.9645
▁42881	-14.9647
▁46062	-14.9648
▁41479	-14.9648
▁1000131	-14.9649
1997	-14.9649
co	-14.9649
1754	-14.965
▁41100	-14.965
mid	-14.9653
▁43989	-14.9653
▁42246	-14.9653
▁wpau	-14.9654
▁44892	-14.9659
▁42720	-14.966
▁47813	-14.9666
20244	-14.9666
▁42315	-14.9666
▁43885	-14.9666
loaduserprofile	-14.9667
▁47498	-14.9669
▁45680	-14.9669
▁41639	-14.967
▁43163	-14.9671
46340	-14.9671
icons	-14.9672
▁absr	-14.9673
▁40404	-14.9675
▁100013	-14.9676
▁46223	-14.968
▁aowner	-14.9682
▁40871	-14.9686
42645	-14.9686
▁45359	-14.9687
▁43901	-14.9687
5956	-14.9687
▁along	-14.969
▁aset	-14.9691
dockcontrol	-14.9691
▁40319	-14.9692
8502	-14.9693
▁45863	-14.9694
▁41324	-14.9695
▁42096	-14.9696
▁40299	-14.9698
ndock	-14.9698
fecd	-14.9699
▁1002316	-14.97
▁48736	-14.97
▁achr	-14.9707
iui	-14.9709
74000	-14.9711
bddb	-14.9712
▁1037	-14.9712
▁45103	-14.9714
▁42367	-14.9716
tex	-14.9717
loadlibrarya	-14.9718
2250	-14.9719
11669	-14.9722
3188	-14.9725
▁44208	-14.9726
hg	-14.9727
▁43079	-14.9729
▁41902	-14.9729
bbbd	-14.9729
▁46112	-14.9731
▁whe	-14.9731
▁46948	-14.9731
▁40988	-14.9734
▁47950	-14.9738
▁41783	-14.9739
4190	-14.9739
▁42876	-14.9742
▁aflush	-14.9746
▁1400921	-14.975
▁40992	-14.9752
▁ansistringusu	-14.9754
4252	-14.9757
▁48152	-14.9762
▁43177	-14.9766
▁42655	-14.9768
1634	-14.9771
▁41307	-14.9773
▁42245	-14.9777
▁45988	-14.978
▁aprogresso	-14.9781
▁48472	-14.9781
▁43196	-14.9782
▁41279	-14.9783
getfocu	-14.9785
▁41428	-14.9785
▁41694	-14.9786
▁41805	-14.9792
▁44554	-14.9792
▁41682	-14.9799
reply	-14.9799
▁45534	-14.9801
▁41854	-14.9803
job	-14.9806
▁42376	-14.9808
bbae	-14.9809
▁42850	-14.9811
kpapa	-14.9813
▁43943	-14.9813
▁46218	-14.9814
▁1073	-14.9814
▁40412	-14.9816
▁44263	-14.982
▁42894	-14.9822
gui	-14.9822
▁42342	-14.9823
▁140092	-14.9824
▁41408	-14.9824
▁44490	-14.9826
▁46986	-14.9827
▁41951	-14.9829
▁45357	-14.9829
▁45955	-14.9831
5230	-14.9832
▁40837	-14.9832
deed	-14.9833
▁43495	-14.9834
▁45614	-14.9834
random	-14.9837
▁41985	-14.9839
▁42793	-14.984
▁47084	-14.984
16724	-14.9841
▁47809	-14.9841
▁45668	-14.9842
4539	-14.9843
▁100095	-14.9846
▁42116	-14.9846
▁40840	-14.9846
▁42587	-14.9847
oneventmod	-14.9848
7300	-14.9851
▁40740	-14.9851
dim	-14.9852
▁41650	-14.9855
▁40646	-14.9861
▁42031	-14.9862
▁46574	-14.9863
▁43839	-14.9864
▁44454	-14.987
ceac	-14.9872
▁40774	-14.9872
▁47354	-14.9873
▁44423	-14.9875
▁47879	-14.9876
▁42205	-14.9877
▁40250	-14.9877
▁41605	-14.9877
2138	-14.9877
▁46955	-14.9878
▁41062	-14.9878
dlld	-14.988
54051	-14.9881
▁46393	-14.9883
▁41531	-14.9884
▁43375	-14.9886
▁maehpa	-14.9886
▁41384	-14.9888
fcfd	-14.9892
bcbd	-14.9894
▁40129	-14.9897
itsec	-14.9899
▁1652	-14.9899
▁48153	-14.99
▁41659	-14.99
▁41039	-14.9901
1498	-14.9902
cbac	-14.9902
eviceinfo	-14.9905
▁translatem	-14.9909
▁41712	-14.991
▁44359	-14.9912
▁41824	-14.9913
1320	-14.9913
▁0040	-14.9913
▁49993	-14.9914
▁42018	-14.9915
▁40161	-14.9916
▁100170	-14.9916
▁41811	-14.9918
▁toutlinenoder	-14.992
▁45625	-14.9921
▁getinternal	-14.9925
▁40462	-14.993
▁49786	-14.9931
▁42508	-14.9936
▁qaehpbutag	-14.9942
▁49490	-14.9943
setthreadpoolw	-14.9943
▁final	-14.9943
ellipse	-14.9943
mailbox	-14.9943
setthreadpoolt	-14.9943
srand	-14.9943
getdir	-14.9943
▁ztinst	-14.9943
1174	-14.9944
▁ayoudont	-14.9944
browse	-14.9944
▁42361	-14.9945
▁41403	-14.9945
▁areceived	-14.9946
▁42087	-14.9947
▁qqrucr	-14.9948
▁41258	-14.9948
▁140006	-14.9948
dcbc	-14.9948
▁41684	-14.9948
bitcount	-14.995
▁1400324	-14.9951
2218	-14.9953
▁44534	-14.9953
▁100194	-14.9955
▁49684	-14.9957
▁43019	-14.9958
45259	-14.9958
▁44634	-14.9959
▁41424	-14.996
▁41755	-14.9963
▁scas	-14.9964
▁1400158	-14.9964
▁42300	-14.9965
aabd	-14.9965
▁40957	-14.9967
▁41614	-14.9968
▁41412	-14.9969
▁42244	-14.9969
arraycreate	-14.9971
▁100162	-14.9971
▁45671	-14.9971
▁alocal	-14.9973
▁isequal	-14.9974
▁adecode	-14.9975
▁40384	-14.9976
▁46073	-14.9977
▁dabv	-14.9977
▁41429	-14.9978
▁41045	-14.998
tterm	-14.9982
▁45482	-14.9984
▁103474	-14.9985
wpages	-14.9986
▁41919	-14.9986
▁43426	-14.9988
▁1019	-14.999
▁42598	-14.9991
▁43751	-14.9991
widget	-14.9992
▁47367	-14.9994
▁41664	-14.9998
efac	-14.9998
▁yaxpbd	-15
▁41986	-15.0002
▁44900	-15.0003
▁41889	-15.0004
▁48374	-15.0007
5656	-15.0008
▁45160	-15.0011
▁41365	-15.0021
bars	-15.0023
▁41260	-15.0023
▁44158	-15.0024
▁45663	-15.0025
▁44212	-15.0026
▁aasc	-15.0028
▁40611	-15.0032
▁80530	-15.0035
6978	-15.0035
1050	-15.0038
▁42504	-15.0038
▁41455	-15.0039
▁44741	-15.004
▁945	-15.004
▁42114	-15.0041
▁45623	-15.0041
▁45356	-15.0041
▁41007	-15.0041
▁43996	-15.0043
▁1154	-15.0044
▁40865	-15.0046
multi	-15.0047
▁44035	-15.0051
▁47276	-15.0055
▁40353	-15.0056
01447	-15.0057
▁140007	-15.0058
▁105515	-15.0059
▁45305	-15.0061
vert	-15.0061
▁42369	-15.0064
▁100053	-15.0067
▁41278	-15.0068
▁42537	-15.0069
beda	-15.0073
ader	-15.0075
▁44347	-15.0078
▁42520	-15.0078
▁43470	-15.0081
▁43176	-15.0082
▁41247	-15.0083
columnnumber	-15.0085
8746	-15.0089
▁44315	-15.0096
▁100303	-15.0099
▁41668	-15.01
1720	-15.0102
▁42673	-15.0111
createfield	-15.012
▁40950	-15.0121
▁42208	-15.0124
2790	-15.0124
▁41391	-15.0125
url	-15.0126
baff	-15.0127
10835	-15.0128
▁40252	-15.0129
1044	-15.013
gethand	-15.0134
1700	-15.0134
two	-15.0136
▁42716	-15.0138
adbc	-15.0139
▁140008	-15.0139
▁45947	-15.014
▁42960	-15.014
▁44528	-15.0143
▁43161	-15.0144
▁43777	-15.0146
▁47303	-15.0149
▁akill	-15.0153
▁41252	-15.0154
▁45396	-15.0157
▁44056	-15.0157
▁100118	-15.0159
tu	-15.0159
cdfb	-15.016
▁41606	-15.0162
▁41127	-15.0163
▁46639	-15.0164
▁1068	-15.0167
▁1000918	-15.0168
▁42039	-15.0174
1119	-15.0174
6860	-15.0176
clitehtml	-15.0176
▁45033	-15.0176
▁40373	-15.018
▁41667	-15.018
▁41727	-15.0182
5124	-15.0182
▁41518	-15.0183
cdac	-15.0184
▁1001409	-15.0184
▁40785	-15.0185
▁46087	-15.0188
utm	-15.0188
bfdf	-15.0189
pvalue	-15.0192
▁100093	-15.0195
▁45706	-15.0195
▁805309	-15.0195
▁42966	-15.0197
processw	-15.02
▁100174	-15.0201
▁40644	-15.0201
▁43950	-15.0202
▁41746	-15.0202
▁42498	-15.0207
▁46490	-15.0207
▁qaexp	-15.021
48035	-15.0211
▁45710	-15.0213
▁40519	-15.0219
ytop	-15.0219
▁45448	-15.022
▁42539	-15.0224
entity	-15.023
▁48702	-15.023
▁42089	-15.023
▁46914	-15.0231
▁45959	-15.0232
▁41855	-15.0232
▁41245	-15.0233
▁42629	-15.0234
▁40775	-15.0236
▁40801	-15.0236
▁40442	-15.024
▁47152	-15.024
▁100119	-15.0241
▁46001	-15.0241
propertya	-15.0242
▁47940	-15.0243
▁41008	-15.0246
▁getmain	-15.0246
▁41845	-15.0248
▁41255	-15.0248
▁45877	-15.0249
openfile	-15.0249
▁43529	-15.0252
▁42627	-15.0252
▁41262	-15.0254
▁42501	-15.0256
cdfd	-15.0257
▁48384	-15.0258
▁43377	-15.0264
▁42363	-15.0266
▁42845	-15.0268
▁47733	-15.0269
▁44907	-15.0271
▁2477	-15.0273
bcff	-15.0274
bdce	-15.0276
▁40619	-15.0277
▁44282	-15.0277
▁1003682	-15.0279
▁44526	-15.0279
▁41791	-15.0282
▁49973	-15.0283
▁asss	-15.0283
▁41477	-15.0283
▁42998	-15.0287
▁45624	-15.029
▁yakp	-15.0295
iscurrent	-15.0295
▁42144	-15.0295
aaaf	-15.0296
▁41386	-15.0298
1854	-15.03
▁140022	-15.0302
▁41934	-15.0302
▁40726	-15.0303
finish	-15.0304
▁1400038	-15.0305
▁abr	-15.0307
▁44154	-15.0309
▁1943	-15.031
▁any	-15.0311
▁44616	-15.0311
▁42856	-15.0311
▁40789	-15.0317
▁2058	-15.0322
▁41213	-15.0322
▁40210	-15.0323
agg	-15.0323
gets	-15.0324
ucomi	-15.0336
▁43754	-15.0338
▁100159	-15.0343
▁41995	-15.0343
0928	-15.0346
▁42506	-15.0346
compression	-15.0348
designer	-15.0349
ull	-15.0351
▁42325	-15.0352
▁40341	-15.0352
gvt	-15.0353
privilege	-15.0355
▁aformat	-15.0355
▁aaepav	-15.0356
lanes	-15.0358
animationgroup	-15.036
chevron	-15.036
ctxgetclassinfo	-15.036
cwebgrab	-15.036
turquois	-15.036
▁kgipb	-15.036
delta	-15.036
▁acannotseek	-15.036
llcli	-15.036
▁xmmmovlarge	-15.036
bdpautagwndclass	-15.036
▁ischarupper	-15.036
▁getval	-15.036
▁asfx	-15.036
▁getdocking	-15.0361
2244	-15.0361
▁shgetfolderpath	-15.0361
▁48691	-15.0361
getclassobj	-15.0362
▁42302	-15.0363
golden	-15.0364
▁43974	-15.0365
bcad	-15.0367
▁graphic	-15.0367
odelistoperation	-15.037
▁42949	-15.0372
▁41550	-15.0372
▁14000650	-15.0372
▁43519	-15.0375
almon	-15.0377
▁npbd	-15.0379
▁48391	-15.038
paw	-15.0381
▁44289	-15.0386
▁46372	-15.0386
▁1800000	-15.0389
readbuf	-15.039
▁42110	-15.039
▁43704	-15.039
forc	-15.0392
▁44219	-15.0392
aafe	-15.0392
fcos	-15.0392
namespace	-15.0394
recurs	-15.0395
uint	-15.0398
▁43622	-15.0399
▁49125	-15.0399
rdatai	-15.0399
▁41294	-15.0401
▁1400696	-15.0402
▁44317	-15.0403
2118	-15.0404
6665	-15.0408
rod	-15.0411
initializesecu	-15.0413
▁100018	-15.0418
48770	-15.0418
▁hconsole	-15.0419
▁3535	-15.0419
▁40222	-15.0422
▁193	-15.0423
▁42443	-15.0428
▁45790	-15.0429
ptrlist	-15.043
▁41022	-15.043
5694	-15.0433
▁45110	-15.0435
▁46335	-15.0437
extent	-15.0437
igroup	-15.0438
▁43013	-15.0438
▁100175	-15.0438
▁sqltimestampto	-15.0439
▁100186	-15.0439
dos	-15.0441
▁42384	-15.0443
▁amenu	-15.0444
04549	-15.0446
▁41346	-15.0447
▁44251	-15.0453
▁41938	-15.0454
▁41059	-15.0456
▁40244	-15.0457
1474	-15.0457
▁43563	-15.0461
▁100014	-15.0461
▁42810	-15.0463
▁43933	-15.0463
▁42202	-15.0467
acfd	-15.0468
▁40527	-15.0469
bcbe	-15.0472
▁40228	-15.0473
▁40330	-15.0477
▁41286	-15.0478
1690	-15.0479
▁aws	-15.048
▁140030	-15.0482
▁41188	-15.0484
cbw	-15.0488
▁40532	-15.0489
▁qb	-15.0489
▁1122	-15.049
▁10035	-15.0493
▁40638	-15.0493
4107	-15.0493
▁41662	-15.0494
▁42579	-15.0494
▁45059	-15.0496
▁42242	-15.0498
gridrect	-15.0501
6490	-15.0502
▁43818	-15.0502
▁40581	-15.0503
▁42163	-15.0506
oleipframe	-15.0514
▁44357	-15.0514
0930	-15.0514
▁42056	-15.0516
▁45378	-15.0517
▁41411	-15.0517
ctoolbar	-15.052
bdeb	-15.052
▁47157	-15.0521
▁45699	-15.0522
▁46409	-15.0525
▁43184	-15.0526
▁44020	-15.0527
▁40952	-15.0528
▁40853	-15.0529
▁1003792	-15.0532
▁43252	-15.0532
▁40194	-15.0534
▁40901	-15.0535
2114	-15.0537
24350	-15.0541
▁46819	-15.0544
▁46427	-15.0547
enext	-15.0548
▁42250	-15.0551
▁45449	-15.0559
▁yaj	-15.0562
▁42547	-15.0563
▁42429	-15.0566
▁getwctype	-15.0568
▁41204	-15.0568
▁40902	-15.0569
▁40665	-15.0569
▁40284	-15.0571
fadc	-15.0572
▁45945	-15.0578
▁100130	-15.058
bcdd	-15.0582
1344	-15.0583
▁41353	-15.0584
▁40968	-15.0588
bdac	-15.0588
1698	-15.0591
▁4931	-15.0591
▁43660	-15.0592
▁42893	-15.0593
▁46374	-15.0597
▁43833	-15.0598
claim	-15.0598
▁45672	-15.0599
▁41913	-15.0605
▁42929	-15.0608
▁1400533	-15.0609
7600	-15.061
bcfb	-15.0612
▁43558	-15.0613
▁44810	-15.0613
▁47933	-15.0615
▁43866	-15.0615
▁46530	-15.0616
35484	-15.0616
▁41974	-15.0617
dqeb	-15.0618
ttime	-15.0618
bbfd	-15.0619
7620	-15.0621
▁49282	-15.0624
▁43604	-15.0624
aecd	-15.0625
6622	-15.0625
4070	-15.0627
utf	-15.0632
▁48479	-15.0635
▁41488	-15.0637
▁100114	-15.0637
▁41608	-15.0638
▁43392	-15.0638
wdh	-15.0639
▁100146	-15.064
11088	-15.0644
▁41669	-15.0645
▁100286	-15.0645
fit	-15.0647
dropdown	-15.0647
▁45090	-15.0648
▁47987	-15.065
▁41918	-15.0651
▁43239	-15.0651
▁46697	-15.0652
▁getlast	-15.0656
▁41704	-15.066
▁42682	-15.066
▁43315	-15.0663
▁42251	-15.0663
▁47234	-15.0665
afxstring	-15.0666
▁100160	-15.0666
▁44781	-15.0667
▁41264	-15.0668
4052	-15.0668
▁46924	-15.0669
▁45089	-15.0669
ddbd	-15.0671
▁41734	-15.0673
▁42292	-15.0678
▁42108	-15.068
▁44601	-15.068
▁44591	-15.0682
▁40283	-15.0683
bcdf	-15.0685
▁49568	-15.069
ifile	-15.0691
▁100120	-15.0691
▁42440	-15.0694
▁103451	-15.0697
▁100071	-15.0701
▁43617	-15.0703
rowheights	-15.0703
▁48455	-15.0705
2808	-15.0707
▁42633	-15.0708
edbe	-15.0709
4530	-15.0711
▁44987	-15.0714
▁40662	-15.0715
▁43156	-15.0716
▁40168	-15.0716
▁42072	-15.0721
▁44787	-15.0725
▁100152	-15.0725
▁pbdk	-15.0726
▁45332	-15.0727
▁43198	-15.0728
▁43718	-15.0729
▁43635	-15.073
▁pextr	-15.0731
▁46700	-15.0731
▁1057	-15.0732
▁41926	-15.0732
1348	-15.0738
▁100070	-15.0741
▁100139	-15.0742
bdba	-15.0743
▁41899	-15.0745
▁41977	-15.0746
▁43180	-15.0746
▁45499	-15.0749
▁80514	-15.0751
5287	-15.0753
▁49773	-15.0754
▁43078	-15.0756
fefd	-15.0756
6884	-15.0756
▁46974	-15.0759
▁41930	-15.076
▁kaa	-15.0763
▁41319	-15.0763
1004	-15.0764
▁43049	-15.0765
▁46429	-15.0767
▁46502	-15.0767
▁atype	-15.0768
▁40414	-15.077
▁qaexpautag	-15.0771
adce	-15.0773
▁42609	-15.0774
▁45258	-15.0775
▁42390	-15.0776
▁48278	-15.0777
▁100017	-15.0777
▁aid	-15.0777
▁44461	-15.0777
fontindirect	-15.0781
▁callmemberfunc	-15.0784
▁49768	-15.0784
▁aline	-15.0788
datetimepic	-15.0793
inprocserver	-15.0794
▁selectorentry	-15.0794
▁setfilesecurity	-15.0794
▁stgopenstorage	-15.0794
enough	-15.0794
▁maskgetmask	-15.0794
▁glm	-15.0794
gkpax	-15.0795
▁trace	-15.0795
▁addfontresource	-15.0795
▁47910	-15.0796
▁pathis	-15.0796
7438	-15.0796
▁40365	-15.0797
▁42560	-15.0798
bcca	-15.0801
▁43181	-15.0801
▁44224	-15.0801
ipen	-15.0802
▁41010	-15.0803
▁40738	-15.0803
aeii	-15.0805
▁41552	-15.0805
ge	-15.0809
adfb	-15.0812
▁41594	-15.0814
▁43183	-15.0815
▁44363	-15.0816
2254	-15.0818
▁42346	-15.0818
▁40395	-15.0818
▁44785	-15.0823
▁tvec	-15.0825
▁41819	-15.0826
▁wpbdi	-15.0828
▁41043	-15.0828
▁40368	-15.0828
▁40931	-15.083
▁olecreate	-15.0832
▁40565	-15.0835
▁qaexhab	-15.0839
▁41988	-15.0839
setglobal	-15.0842
▁41982	-15.0843
▁46453	-15.0844
▁46274	-15.0846
▁20006	-15.0853
bdfe	-15.0854
▁47590	-15.0854
▁41489	-15.0855
▁1400265	-15.0856
▁49390	-15.0859
▁45559	-15.0859
▁saipb	-15.0859
▁44902	-15.086
▁42517	-15.086
aebc	-15.086
▁40507	-15.0862
luid	-15.0862
▁40220	-15.0865
▁getbit	-15.0865
▁420080	-15.0869
▁40355	-15.0875
▁40101	-15.0879
1148	-15.0879
▁40343	-15.088
1734	-15.0881
▁41442	-15.0888
lfw	-15.0888
▁41289	-15.0891
▁43844	-15.0894
▁41591	-15.0897
▁42313	-15.0897
oformat	-15.0898
▁random	-15.0899
▁45613	-15.09
▁amouseget	-15.0901
▁100259	-15.0901
▁42272	-15.0904
▁40195	-15.0909
69574	-15.0915
▁42348	-15.0916
▁46641	-15.0919
▁46302	-15.092
▁1003204	-15.092
createinstance	-15.0921
▁3532	-15.0923
▁42277	-15.0924
▁42865	-15.0926
▁44073	-15.0927
coledatetime	-15.0927
cbfc	-15.0928
6400	-15.0931
▁46693	-15.0931
▁44337	-15.0932
▁8049	-15.0934
befb	-15.0941
bm	-15.0941
bdea	-15.0943
▁45368	-15.0948
tcolor	-15.0949
▁44592	-15.0949
▁42449	-15.0949
bdae	-15.0952
the	-15.0954
▁44116	-15.0957
▁42088	-15.0958
▁42896	-15.0958
▁41954	-15.0959
wmemory	-15.0965
▁100165	-15.0969
▁44311	-15.0973
commoncontrol	-15.0976
2063	-15.0976
▁hwi	-15.0978
▁46209	-15.098
▁44191	-15.0981
▁40576	-15.0981
▁1400743	-15.0982
▁1666	-15.0982
▁41231	-15.0984
sizeparent	-15.0985
▁44374	-15.0985
▁42476	-15.0987
ffdb	-15.0988
▁45883	-15.0988
▁41686	-15.0988
▁42771	-15.0991
▁46098	-15.0991
▁45370	-15.0992
▁41211	-15.0993
▁44557	-15.0995
▁46760	-15.1
▁45995	-15.1003
▁41326	-15.1003
▁43849	-15.1003
▁43808	-15.1007
▁100168	-15.1007
▁42586	-15.101
▁40835	-15.1012
▁42046	-15.1015
▁140051	-15.1016
2133	-15.1018
▁1400037	-15.1019
▁42469	-15.102
bcbf	-15.1021
▁41634	-15.1024
▁41968	-15.1025
invoke	-15.1029
▁42485	-15.1034
▁43774	-15.1036
▁44851	-15.1037
▁41849	-15.1039
▁42605	-15.1044
▁140063	-15.1048
▁41446	-15.1053
▁41104	-15.1054
6926	-15.1054
▁40886	-15.1056
▁45426	-15.1057
▁49974	-15.1057
▁40600	-15.1062
▁42055	-15.1063
▁41671	-15.1066
beaf	-15.1066
▁42395	-15.107
▁43015	-15.107
▁44426	-15.1071
▁100167	-15.1072
▁49468	-15.1073
▁47510	-15.1073
▁42837	-15.1076
▁40806	-15.1077
▁46748	-15.108
▁41901	-15.1081
▁45845	-15.1084
6448	-15.1088
▁42069	-15.1092
▁44397	-15.1095
▁amain	-15.1096
1308	-15.1096
▁41016	-15.1097
2890	-15.1098
3568	-15.1105
▁41358	-15.1106
▁42093	-15.1107
model	-15.1111
▁43431	-15.1116
▁41237	-15.1118
▁40176	-15.1118
▁41893	-15.112
44025	-15.1121
▁42215	-15.1124
▁40875	-15.1124
▁10094	-15.1124
▁45408	-15.1127
▁41764	-15.1128
▁40206	-15.1128
▁47105	-15.1132
▁42024	-15.1133
▁47064	-15.1135
ffca	-15.1137
▁44985	-15.1139
▁40345	-15.114
▁44813	-15.114
▁40596	-15.1141
▁41803	-15.1141
▁140050	-15.1144
▁42594	-15.1144
▁100122	-15.1146
6848	-15.1147
▁42318	-15.1148
fcad	-15.115
▁100264	-15.1153
▁41762	-15.1155
▁42372	-15.1156
▁100245	-15.1156
▁42099	-15.1157
▁44293	-15.1159
ffdfff	-15.1159
▁41844	-15.1161
▁1400159	-15.1162
threadpool	-15.1165
6500	-15.1167
▁41449	-15.1167
▁40991	-15.1168
▁43960	-15.1172
▁100087	-15.1178
▁44865	-15.1178
▁xmmcopylarge	-15.1178
▁hsource	-15.118
▁aole	-15.1181
7705	-15.1181
safepoint	-15.1181
▁42847	-15.1181
1858	-15.1182
▁46113	-15.1187
dade	-15.1189
▁41815	-15.119
▁42698	-15.119
▁43024	-15.1191
▁43029	-15.1191
▁hhhhhhh	-15.12
pauiexecution	-15.12
▁44713	-15.1202
rv	-15.1203
bdfc	-15.1204
2258	-15.1204
▁42559	-15.1205
▁40772	-15.1206
docksi	-15.1207
▁42654	-15.1207
eeda	-15.1208
▁44792	-15.1208
▁40847	-15.1212
▁44468	-15.1212
▁42779	-15.1215
rk	-15.1215
▁48298	-15.1217
▁47029	-15.1217
6930	-15.1219
▁43329	-15.1219
▁49590	-15.122
transaction	-15.1225
fffffea	-15.1225
▁threadstart	-15.1227
▁43047	-15.1228
▁haschild	-15.1229
cece	-15.123
▁44723	-15.123
▁46128	-15.1231
▁48288	-15.1232
▁40976	-15.1233
44885	-15.1233
▁40932	-15.1233
▁47330	-15.1235
▁20010	-15.1235
▁40508	-15.1235
nmax	-15.1236
play	-15.1236
ate	-15.1238
▁43978	-15.124
▁40675	-15.1241
▁41361	-15.1241
▁qqruir	-15.1243
▁41470	-15.1243
8300	-15.1246
▁41300	-15.1247
▁42712	-15.1248
▁45785	-15.1248
▁40562	-15.1248
▁42666	-15.1249
pbepa	-15.1249
through	-15.1249
▁toggle	-15.1249
installparams	-15.1249
▁iaejjpapaui	-15.1249
▁shgetfileinfo	-15.1249
▁gpaek	-15.1249
resou	-15.1249
temporar	-15.1249
ntrolbar	-15.1249
createdoc	-15.1249
▁vbalateidcall	-15.1249
boost	-15.125
entprop	-15.125
▁internetquery	-15.125
alias	-15.125
▁kerneltime	-15.1251
▁anone	-15.1251
▁44715	-15.1252
▁auin	-15.1252
▁40787	-15.1252
▁apri	-15.1253
▁44308	-15.1253
▁44361	-15.1253
folder	-15.1253
▁44007	-15.1255
socketerror	-15.1255
▁sigret	-15.1255
435245	-15.1255
nonreentrant	-15.1256
redim	-15.1256
2234	-15.1256
cdao	-15.1258
▁42955	-15.1261
▁getfp	-15.1262
insb	-15.1262
nik	-15.1263
▁40828	-15.1263
▁registertypelib	-15.1264
▁abeep	-15.1266
▁402420	-15.1267
▁45787	-15.1268
▁40623	-15.127
▁csimplearray	-15.127
▁140033	-15.1271
▁41969	-15.1273
▁qqrxuc	-15.1274
▁40187	-15.1274
▁40965	-15.1274
httpresponseinfo	-15.1276
▁45895	-15.1277
▁awindows	-15.1278
enumv	-15.1278
70221	-15.1279
papaxpa	-15.1279
▁40791	-15.1281
▁45715	-15.1283
2034	-15.1285
▁iostater	-15.1285
▁41002	-15.1286
▁iaejp	-15.1286
▁42660	-15.1287
▁44812	-15.1287
▁47181	-15.129
ni	-15.1291
▁45464	-15.1293
pclass	-15.1295
▁41914	-15.1295
▁41009	-15.1296
▁41663	-15.1297
▁setmonth	-15.1297
▁40236	-15.1299
▁42854	-15.13
▁44740	-15.13
5450	-15.1301
cbfa	-15.1303
▁41904	-15.1307
ritydescriptor	-15.1307
▁42817	-15.1314
cbdd	-15.1316
▁48452	-15.1317
▁4892	-15.1317
▁47444	-15.1317
▁42608	-15.1318
cede	-15.1319
▁42495	-15.1322
▁anotan	-15.1323
mborder	-15.1326
▁tobjectr	-15.1327
▁100086	-15.1329
coun	-15.1331
▁43258	-15.1331
▁41837	-15.1333
caef	-15.1334
▁40573	-15.1334
▁42398	-15.1334
▁45210	-15.1338
▁44399	-15.134
▁42562	-15.1341
▁42328	-15.1342
▁setend	-15.1348
▁48468	-15.1349
▁41644	-15.135
▁aam	-15.135
▁43799	-15.1351
42108	-15.1352
▁42668	-15.1355
▁42729	-15.1358
▁42752	-15.1359
▁46386	-15.1359
▁40313	-15.1361
▁42781	-15.1364
pbdipau	-15.1366
ambi	-15.1368
▁100442	-15.1368
▁1026	-15.1375
2818	-15.1375
▁2118	-15.138
facd	-15.1381
▁sweep	-15.1382
▁44414	-15.1383
▁46002	-15.1384
▁48265	-15.1384
7292	-15.1386
▁43769	-15.1386
▁41280	-15.1387
▁sql	-15.1389
febc	-15.139
▁140035	-15.1391
▁43042	-15.1393
▁46215	-15.1396
▁44767	-15.1396
▁49784	-15.1397
▁100181	-15.14
▁40291	-15.14
▁40555	-15.1403
bade	-15.1403
0130	-15.1409
▁2011	-15.141
▁46810	-15.141
bded	-15.1411
▁41955	-15.1411
▁44682	-15.1411
▁43360	-15.1411
▁42714	-15.1412
▁44949	-15.1412
▁42432	-15.1414
1078	-15.1416
bdcc	-15.1417
▁44034	-15.1417
▁46578	-15.1417
▁45082	-15.1419
aeaau	-15.1427
bacf	-15.143
6790	-15.143
▁45985	-15.143
49092	-15.1434
▁41991	-15.1436
▁100307	-15.1436
▁41737	-15.1437
▁44799	-15.1438
▁42058	-15.1439
ipautag	-15.144
▁852	-15.1443
▁41191	-15.1445
▁42479	-15.1446
▁45812	-15.1447
▁41912	-15.1447
▁100134	-15.1449
▁100230	-15.1449
▁45243	-15.1453
▁48566	-15.1456
▁1131	-15.1459
▁44704	-15.1467
▁40583	-15.1469
▁42037	-15.147
▁1108	-15.1471
▁41364	-15.1472
▁41739	-15.1474
▁44523	-15.1476
▁41952	-15.1481
7610	-15.1484
ilbit	-15.1486
▁44643	-15.1487
▁41056	-15.1488
feca	-15.1494
▁47605	-15.1494
▁41623	-15.1495
▁setfirst	-15.1497
bacb	-15.1497
46524	-15.1507
▁40302	-15.1511
▁42730	-15.1513
ndex	-15.1513
▁41422	-15.1516
fromfile	-15.1517
▁41290	-15.1518
▁46303	-15.1519
▁42852	-15.152
▁43216	-15.1521
▁100083	-15.1522
▁41065	-15.1522
▁44486	-15.1522
2624	-15.1524
▁41757	-15.1525
▁49701	-15.1526
▁41928	-15.1526
appp	-15.1526
acreateevent	-15.1529
▁45748	-15.1532
tryblockmap	-15.1532
▁42134	-15.1533
▁42997	-15.1534
▁41781	-15.1536
▁100203	-15.1538
6628	-15.1538
▁46148	-15.1539
▁44809	-15.1541
edfc	-15.1541
▁readd	-15.1541
bcfd	-15.1545
▁44481	-15.1549
▁45406	-15.155
6800	-15.155
▁setmaxsel	-15.155
▁40577	-15.155
baab	-15.1551
▁45810	-15.1551
▁46180	-15.1552
▁42102	-15.1555
▁100305	-15.1557
▁44133	-15.1557
▁anew	-15.1557
▁1003116	-15.1558
43986	-15.1559
▁100228	-15.1562
bcdb	-15.1563
▁42592	-15.1566
▁theader	-15.1568
efda	-15.1571
▁43087	-15.1573
▁41336	-15.1573
▁41627	-15.1575
▁44031	-15.1578
rpv	-15.1579
▁40560	-15.1582
8395	-15.1584
▁40990	-15.1588
▁42478	-15.159
ands	-15.159
▁41856	-15.159
dfea	-15.1596
▁44927	-15.1597
▁43262	-15.1601
▁42322	-15.1601
▁43606	-15.1601
▁gettab	-15.1605
ametext	-15.1608
▁42748	-15.1608
▁41510	-15.1609
▁45323	-15.1613
▁44333	-15.1616
▁42033	-15.1617
bcab	-15.1618
▁45629	-15.1619
▁qbeih	-15.1623
▁44966	-15.1624
1270	-15.1624
▁46004	-15.1625
▁41201	-15.1626
▁qaexpbdpa	-15.1627
▁41302	-15.1627
bdbb	-15.1629
datefrom	-15.1629
▁42738	-15.1631
▁44024	-15.1633
6854	-15.1635
aaea	-15.1636
▁44142	-15.1637
▁42737	-15.1638
▁100039	-15.1642
▁40296	-15.1646
▁100150	-15.1646
kqueue	-15.1648
03204	-15.1649
▁1098	-15.165
▁46544	-15.1651
▁100044	-15.1654
001910	-15.1655
hhpautag	-15.1656
1864	-15.1656
▁43884	-15.1656
axpaueh	-15.1656
▁45615	-15.1658
▁45864	-15.1658
▁41722	-15.166
blend	-15.166
▁43244	-15.1664
fafe	-15.1664
▁42282	-15.1665
▁aembed	-15.1665
▁44427	-15.1665
▁42409	-15.1666
▁47941	-15.1667
▁41226	-15.1667
6285	-15.1668
▁manage	-15.167
values	-15.1673
eindex	-15.1674
rectrgn	-15.1675
▁aauto	-15.1675
▁48023	-15.1676
▁48301	-15.1677
35502	-15.1677
▁41626	-15.1678
river	-15.168
▁npavschedule	-15.1681
▁44698	-15.1683
▁41770	-15.1683
▁44858	-15.1684
▁45493	-15.1684
▁43669	-15.1684
▁40893	-15.1685
▁43411	-15.1685
ecda	-15.1686
▁42939	-15.1686
▁41075	-15.1686
▁43051	-15.1686
▁45743	-15.1687
▁45108	-15.1688
6521	-15.1689
▁1125	-15.1692
▁41541	-15.1693
▁42630	-15.1693
▁44975	-15.1697
▁49238	-15.1698
▁41259	-15.1698
▁arich	-15.1701
▁42833	-15.1701
▁acontrolget	-15.1702
rown	-15.1704
▁100196	-15.1705
▁47953	-15.1707
▁4988	-15.1708
▁41503	-15.171
▁40790	-15.1711
▁45238	-15.1714
medium	-15.1715
unsigned	-15.1715
▁44765	-15.1716
getfileinforma	-15.1717
▁46133	-15.1717
▁44469	-15.172
▁100320	-15.1722
etfileinforma	-15.1724
avscheduler	-15.1725
▁loctotime	-15.1725
▁vartowidestr	-15.1725
▁atmp	-15.1726
ntexta	-15.1726
▁yahpeau	-15.1726
▁prcupdate	-15.1726
▁41291	-15.1726
sqlexceptiontype	-15.1727
dhqeah	-15.1728
▁44566	-15.1728
01843	-15.1728
▁qaexhi	-15.1728
▁41159	-15.1728
▁lstrfrompwchar	-15.1728
texture	-15.1728
ipxi	-15.1728
▁tdomvendor	-15.173
▁40245	-15.173
▁setuse	-15.173
▁43376	-15.1731
▁wstrcat	-15.1731
▁45279	-15.1731
getb	-15.1732
49532	-15.1733
▁45537	-15.1734
bcae	-15.1735
▁45899	-15.1736
▁43952	-15.1736
▁dynarraycopy	-15.1736
▁44187	-15.1738
▁43802	-15.1738
▁44497	-15.174
lic	-15.174
▁45970	-15.174
▁43417	-15.1741
▁42284	-15.1741
▁46213	-15.1744
▁47764	-15.1745
▁43831	-15.1749
004667	-15.175
▁44556	-15.1751
▁43763	-15.1756
tzs	-15.1756
▁45937	-15.1759
qword	-15.1762
over	-15.1771
▁45157	-15.1772
▁getfields	-15.1773
▁43811	-15.1774
▁140057	-15.1776
▁44877	-15.1777
domparse	-15.1779
▁424260	-15.1779
▁45874	-15.1782
▁49688	-15.1784
80047	-15.1785
▁40248	-15.1786
▁45228	-15.1788
sendto	-15.1788
▁41622	-15.1789
▁42657	-15.1792
▁44052	-15.18
▁43792	-15.1801
▁1099	-15.1802
cecc	-15.1804
▁42664	-15.1806
▁42477	-15.1807
dev	-15.1809
bufferma	-15.1809
objecttyp	-15.1809
cept	-15.1809
caae	-15.1812
▁42149	-15.1818
53307	-15.1819
▁100021	-15.182
cproperty	-15.1821
arrange	-15.1823
cbutton	-15.1824
▁44324	-15.1827
▁3533	-15.1827
▁atz	-15.1835
▁43681	-15.1836
▁46880	-15.1837
▁42534	-15.1838
▁42003	-15.184
1684	-15.184
▁43294	-15.1841
▁45040	-15.1842
▁ahotkey	-15.1848
▁45766	-15.1849
▁41185	-15.1849
▁40216	-15.1851
cfdf	-15.1851
▁41772	-15.1854
▁49663	-15.186
iptoro	-15.1863
▁49574	-15.1863
▁43298	-15.1866
▁qqs	-15.1866
ebac	-15.1871
▁43190	-15.1872
▁42747	-15.1872
bdfb	-15.1875
▁44050	-15.1877
▁100171	-15.1877
▁48051	-15.1878
▁47356	-15.188
▁npa	-15.1881
▁40602	-15.1881
fileinfo	-15.1882
▁43255	-15.1883
▁48499	-15.1885
▁40297	-15.1887
▁padds	-15.1889
▁40556	-15.1892
▁100410	-15.1893
▁40709	-15.1893
▁42265	-15.1894
▁100136	-15.1894
▁45986	-15.1895
bbfb	-15.1903
▁40292	-15.1903
sin	-15.1903
31578	-15.1908
secret	-15.191
▁46343	-15.1913
recpx	-15.1913
▁100169	-15.1913
8605	-15.1914
▁45793	-15.1914
▁44452	-15.1915
▁getparam	-15.1917
▁41506	-15.1917
▁40447	-15.1926
▁42647	-15.1929
6248	-15.193
▁42316	-15.1933
▁1000794	-15.1935
▁47577	-15.1935
▁46093	-15.1938
aeav	-15.1939
▁100304	-15.1939
▁rtci	-15.1941
▁44982	-15.1943
▁100043	-15.1943
▁40685	-15.1944
▁47967	-15.1945
5428	-15.1948
buy	-15.1949
▁41458	-15.1949
lout	-15.1952
▁41117	-15.1955
▁42619	-15.1957
▁stol	-15.1957
▁47335	-15.1957
▁aconnection	-15.1957
▁42288	-15.1958
▁45528	-15.1959
▁42658	-15.196
ota	-15.1966
defer	-15.1966
▁44629	-15.1968
▁44855	-15.1969
▁40579	-15.1969
▁40821	-15.1977
1158	-15.1978
▁48453	-15.1979
▁41672	-15.1979
▁43320	-15.198
▁41123	-15.1981
▁1328	-15.1981
▁pbdd	-15.1984
▁42415	-15.1985
▁140089	-15.1985
1769	-15.1986
▁45020	-15.1987
et	-15.199
▁42924	-15.1992
▁44393	-15.1995
▁ygxpav	-15.1995
▁45859	-15.1997
▁41583	-15.1998
ebaa	-15.1998
bip	-15.1998
▁41334	-15.1998
sizein	-15.2001
▁43906	-15.2002
▁43970	-15.2005
▁43573	-15.2005
▁42294	-15.2009
xaav	-15.2013
▁3518	-15.2013
▁48662	-15.2018
14006	-15.2019
9160	-15.2022
▁43146	-15.2023
▁40779	-15.2023
▁41892	-15.2025
▁45873	-15.2025
▁45042	-15.2027
▁45612	-15.2027
▁47824	-15.203
▁41508	-15.2032
▁46256	-15.2037
▁47080	-15.2037
▁41215	-15.2037
▁47483	-15.2038
▁42439	-15.204
▁vsn	-15.2042
▁46067	-15.2043
▁44059	-15.2044
▁42814	-15.2045
6283	-15.2048
▁41244	-15.2048
beccc	-15.205
▁41947	-15.205
▁44377	-15.2051
▁100319	-15.2053
▁49461	-15.2054
▁41802	-15.2057
▁43107	-15.2058
▁45241	-15.206
2230	-15.2061
▁48369	-15.2061
cbbe	-15.2063
▁10039	-15.2063
▁41729	-15.2064
▁43339	-15.2066
▁42444	-15.2073
efbc	-15.2075
cdfe	-15.2077
▁43073	-15.2078
▁46906	-15.2079
▁44756	-15.2081
▁45327	-15.2082
▁42948	-15.2084
▁44184	-15.2087
▁ygxpax	-15.2087
▁44413	-15.2089
▁41513	-15.2089
embedded	-15.209
1300	-15.209
ffba	-15.209
▁46318	-15.2093
▁42161	-15.2093
▁44312	-15.2093
6509	-15.2095
fdfe	-15.2096
43019	-15.2096
▁45427	-15.2097
▁41700	-15.2101
▁44886	-15.2105
wo	-15.2108
▁40385	-15.2109
▁44818	-15.2111
1304	-15.2112
▁45994	-15.2113
▁100221	-15.2114
▁42421	-15.2115
▁42765	-15.2116
▁43662	-15.2118
5228	-15.212
▁48049	-15.2124
▁41147	-15.2127
▁43238	-15.2128
▁41051	-15.2128
▁40325	-15.2131
▁42659	-15.2135
41183	-15.2137
6422	-15.214
pahpa	-15.2141
▁40745	-15.2142
▁42416	-15.2144
▁42285	-15.2148
2769	-15.2149
▁807	-15.2152
1321	-15.2155
▁100274	-15.2156
go	-15.2158
▁48708	-15.2158
aedc	-15.216
▁43682	-15.2167
▁100182	-15.2168
▁41929	-15.2169
append	-15.2171
0790	-15.2171
▁44283	-15.2175
▁45227	-15.2176
▁40394	-15.2178
▁40923	-15.2179
002338	-15.2183
▁43081	-15.2183
▁43419	-15.2184
▁40406	-15.2184
clients	-15.2186
▁41721	-15.2186
▁100290	-15.219
▁44790	-15.219
01389	-15.2191
▁40937	-15.2191
gain	-15.2193
getsystemmetri	-15.2193
▁44434	-15.2194
▁40402	-15.2196
▁47251	-15.2197
▁46250	-15.22
▁40733	-15.22
▁41122	-15.2202
ang	-15.2203
▁40982	-15.2205
ky	-15.2206
▁47641	-15.2206
▁100059	-15.2208
▁rip	-15.2209
7510	-15.221
▁44669	-15.221
▁46079	-15.2213
tinplace	-15.2216
▁40857	-15.2217
▁40531	-15.2218
▁40841	-15.2218
persistent	-15.2222
▁40736	-15.2225
solut	-15.2225
▁keyboard	-15.2225
▁qbexqb	-15.2225
▁plpal	-15.2225
pecificlocaltime	-15.2225
▁playmetafile	-15.2225
▁pparameterlist	-15.2225
▁aconnectionssh	-15.2225
▁whqah	-15.2225
concrt	-15.2225
▁getcomputername	-15.2225
▁writefds	-15.2225
▁vbainstr	-15.2225
▁acr	-15.2225
▁kpeb	-15.2225
▁vbavarfor	-15.2225
enummetafile	-15.2226
1364	-15.2226
dragli	-15.2226
rebar	-15.2227
▁pavcvariantbool	-15.2227
▁wcto	-15.2228
▁43717	-15.2228
howm	-15.2228
policyvalue	-15.2228
copyun	-15.2229
▁setservice	-15.2229
ingcon	-15.223
▁readdat	-15.223
▁80808080	-15.223
▁qaehhi	-15.223
▁40758	-15.2231
▁44823	-15.2231
▁42892	-15.2232
boolsinto	-15.2232
delay	-15.2235
▁setfp	-15.2236
▁qaeipa	-15.2238
hpbdii	-15.2239
▁47951	-15.2239
▁40551	-15.2239
cbdata	-15.224
▁40944	-15.224
▁44160	-15.2241
▁100258	-15.2242
▁qeaaxpeb	-15.2242
▁40104	-15.2243
▁43860	-15.2243
▁426956	-15.2244
borders	-15.2244
▁44295	-15.2245
▁43307	-15.2245
▁40832	-15.2247
▁tole	-15.2247
▁43673	-15.2251
▁43645	-15.2252
ettheme	-15.2254
▁47647	-15.2255
lldi	-15.2256
▁41711	-15.2256
▁4921	-15.2259
▁10096	-15.2259
▁fix	-15.226
▁48046	-15.2266
▁45267	-15.2266
ipb	-15.2267
▁43783	-15.2269
▁43382	-15.2275
▁aas	-15.2275
▁45158	-15.2275
▁40149	-15.2275
▁46296	-15.2276
qr	-15.2276
bfda	-15.2277
▁listen	-15.2278
▁43953	-15.228
▁1000790	-15.2281
bebc	-15.2284
▁43796	-15.2289
▁43106	-15.2297
43122	-15.2301
▁43656	-15.2301
▁44917	-15.2302
▁46006	-15.2303
▁40649	-15.2303
6659	-15.2305
▁40860	-15.2306
▁44868	-15.2308
▁46200	-15.2313
lation	-15.2316
▁44155	-15.2316
▁42770	-15.2327
▁100923	-15.2328
nregistertypelib	-15.2329
terminated	-15.2331
▁46349	-15.2332
▁45492	-15.2335
▁iaexpb	-15.2335
▁100349	-15.2336
▁abn	-15.2336
▁4885	-15.2338
▁45776	-15.2338
▁43984	-15.2339
impl	-15.234
▁41146	-15.2341
▁40413	-15.2342
▁48381	-15.2347
egi	-15.2347
daac	-15.2348
▁43543	-15.2352
baaa	-15.2352
▁45130	-15.2352
▁5265	-15.2354
▁permission	-15.2358
▁sapav	-15.2358
bcea	-15.2361
▁42306	-15.2364
▁40974	-15.2364
getfilesize	-15.2369
▁100244	-15.237
06999	-15.2376
peavc	-15.2376
▁49303	-15.2376
▁44084	-15.2377
6388	-15.2381
▁45658	-15.2382
▁42484	-15.2387
▁44356	-15.2387
▁48334	-15.2389
ispat	-15.2389
▁100069	-15.2393
bbef	-15.2394
▁41965	-15.2394
4350	-15.2396
ls	-15.2398
getdata	-15.24
1374	-15.2401
▁44744	-15.2401
▁aunc	-15.2403
▁40839	-15.2407
strin	-15.241
▁44491	-15.241
▁1178	-15.2411
▁45010	-15.2413
▁46162	-15.2413
▁40420	-15.2413
▁100054	-15.2419
6662	-15.2419
bump	-15.2422
▁47435	-15.2422
▁42235	-15.2425
▁44830	-15.2427
3894	-15.2428
6722	-15.2428
▁43246	-15.243
▁40542	-15.2431
4250	-15.2435
0434	-15.2439
▁42636	-15.2439
▁45245	-15.244
▁44875	-15.2442
▁45043	-15.2443
padpad	-15.2445
▁42808	-15.2445
▁40880	-15.2445
▁41081	-15.2446
▁41786	-15.2449
aebf	-15.2451
refresh	-15.2452
▁getlcidfromlang	-15.2455
▁43043	-15.2463
▁100126	-15.2464
▁47257	-15.2465
▁aitem	-15.2467
▁40257	-15.2473
▁44617	-15.2477
▁42196	-15.2478
▁42269	-15.248
▁48248	-15.248
▁47724	-15.2482
▁4815	-15.2482
aehpautag	-15.2483
▁45221	-15.2488
▁48107	-15.249
▁44275	-15.2491
servercon	-15.2492
▁41162	-15.2493
▁46299	-15.2493
▁42984	-15.2494
▁41352	-15.2495
48229	-15.2499
▁43785	-15.2499
▁41820	-15.25
▁40940	-15.2501
▁41462	-15.2501
▁40131	-15.2502
▁5555	-15.2506
▁44555	-15.2506
▁44038	-15.2508
▁43277	-15.2512
[...]
